<unk>	0
<s>	0
</s>	0
▁	-2.73085
__	-3.41054
BR	-3.4775
▁__	-3.54926
の	-3.9803
は	-4.25529
で	-4.38169
？	-4.39752
が	-4.42137
に	-4.72979
、	-4.7487
も	-4.92106
と	-5.01592
な	-5.13524
を	-5.19753
って	-5.20813
か	-5.37846
から	-5.38498
や	-5.47127
とか	-5.55342
…	-5.55515
！	-5.62088
し	-5.77426
やろ	-5.93558
わ	-5.93564
「	-5.99058
なら	-6.07499
やで	-6.24382
」	-6.27747
。	-6.28818
)	-6.29343
けど	-6.31928
(	-6.38167
して	-6.40287
1	-6.4147
て	-6.42357
ー	-6.43115
よ	-6.43549
ん	-6.4704
る	-6.47776
やな	-6.5229
でも	-6.53321
2	-6.5672
た	-6.57859
い	-6.62599
する	-6.6301
人	-6.66994
ら	-6.69561
ない	-6.71637
した	-6.73556
かな	-6.73906
ね	-6.74938
（	-6.75845
3	-6.78539
）	-6.79768
んや	-6.91628
なんか	-6.91761
そう	-6.92743
▁ワイ	-6.9366
やん	-6.95218
ぞ	-6.95343
り	-6.95635
ンゴ	-6.96475
だけ	-6.96594
大	-7.03352
・・・	-7.03355
さん	-7.05639
お	-7.06816
く	-7.08344
やぞ	-7.09141
んか	-7.09586
まで	-7.1175
さ	-7.1655
4	-7.17874
回	-7.18885
やんけ	-7.18905
だ	-7.20111
より	-7.20389
なんて	-7.2102
なぁ	-7.21258
▁ワイは	-7.23621
・	-7.24703
ス	-7.24761
してる	-7.25203
ある	-7.25575
やけど	-7.26327
本	-7.26506
やし	-7.2872
き	-7.29351
だから	-7.29652
▁まあ	-7.30769
やから	-7.31781
には	-7.32184
み	-7.32634
こと	-7.32824
のは	-7.33632
いい	-7.33688
5	-7.34231
試合	-7.35037
ワイ	-7.35878
もう	-7.36137
年	-7.37107
のか	-7.38706
よな	-7.38734
▁これ	-7.39055
った	-7.39097
見	-7.39191
う	-7.42079
ル	-7.42371
たら	-7.46402
日	-7.46966
す	-7.47093
なん	-7.4877
▁もう	-7.49129
になる	-7.49401
一	-7.49926
しか	-7.50274
つ	-7.50557
点	-7.51308
～	-7.51981
番	-7.52162
これ	-7.5256
だった	-7.52563
やね	-7.52717
何	-7.52749
→	-7.53451
くらい	-7.55262
ト	-7.55642
▁でも	-7.56192
ろ	-7.56206
出	-7.56712
できる	-7.57288
中	-7.57946
あ	-7.61576
こ	-7.62162
んやで	-7.62672
という	-7.62982
...	-7.63008
やった	-7.63632
ま	-7.64382
め	-7.66648
J	-7.67188
したら	-7.67327
▁なんで	-7.68085
10	-7.68221
なかった	-7.68445
やつ	-7.68503
スレ	-7.69011
みたいな	-7.69641
6	-7.69646
なあ	-7.70565
え	-7.70661
▁今	-7.71188
位	-7.7121
いた	-7.71485
……	-7.71701
▁それ	-7.72447
▁なお	-7.72604
この	-7.72726
ド	-7.72785
んやろ	-7.72861
ア	-7.73862
金	-7.75
時	-7.75324
それ	-7.75447
分	-7.75621
だと	-7.75624
その	-7.75845
ば	-7.75993
リ	-7.76177
選手	-7.7639
話	-7.76623
方	-7.76792
マ	-7.785
▁ワイも	-7.78517
じゃ	-7.78703
気	-7.79303
戦	-7.79451
イ	-7.79609
っ	-7.79635
ク	-7.805
おん	-7.80533
者	-7.80576
数	-7.808
なんや	-7.80929
ラ	-7.81081
んだ	-7.81091
民	-7.81143
事	-7.81523
▁この	-7.8176
子	-7.83354
▁あと	-7.83384
です	-7.83699
じゃない	-7.83778
7	-7.85292
タ	-7.85612
ン	-7.8577
好き	-7.86337
時間	-7.86407
と思う	-7.86771
勝	-7.86907
球	-7.87448
いる	-7.88699
れば	-7.88803
がある	-7.89639
の方が	-7.89788
今	-7.90133
〜	-7.91313
１	-7.91363
ﾞ	-7.91475
れ	-7.9186
まだ	-7.91895
手	-7.91929
物	-7.92438
投手	-7.92497
け	-7.92796
名	-7.93154
▁なんか	-7.93309
9	-7.93889
シ	-7.93915
くん	-7.94182
のに	-7.94326
だけで	-7.94448
のが	-7.94778
8	-7.95392
▁まぁ	-7.96289
ロ	-7.96688
▁その	-7.96845
として	-7.96854
w	-7.97937
よう	-7.98061
前	-7.98136
ぐらい	-7.98538
ッ	-7.98562
上	-7.99114
万	-7.99822
奴	-7.99981
だろ	-8.0009
ズ	-8.00171
▁お	-8.00537
?	-8.00571
れる	-8.00645
ってる	-8.01194
▁ワイの	-8.01245
にも	-8.01506
月	-8.02135
される	-8.02393
からな	-8.02549
割	-8.02681
目	-8.02831
三	-8.02862
カ	-8.03024
チーム	-8.0318
▁いや	-8.03319
された	-8.03971
！」	-8.04116
やって	-8.04327
j	-8.04421
力	-8.04497
感じ	-8.04555
ナ	-8.04705
らしい	-8.05035
下	-8.05569
とかいう	-8.05827
また	-8.06925
良い	-8.07453
になった	-8.08141
２	-8.08429
レベル	-8.08471
田	-8.08751
ちゃん	-8.08953
ゲーム	-8.09093
よく	-8.1028
生	-8.10306
▁これは	-8.10592
すこ	-8.10801
ええ	-8.10844
▁あれ	-8.10886
高	-8.11497
国	-8.11626
イッチ	-8.11825
コ	-8.12327
先発	-8.12351
ワイは	-8.12814
バ	-8.13424
外	-8.13692
とこ	-8.13693
A	-8.13759
ンゴねぇ	-8.13823
▁1	-8.13842
たい	-8.14612
む	-8.14645
野球	-8.15141
せ	-8.15594
▁(	-8.16658
ブ	-8.16691
してた	-8.17374
んやけど	-8.17489
なんで	-8.17762
だけど	-8.1831
▁イッチ	-8.1843
見て	-8.18505
そんな	-8.18974
部	-8.19017
C	-8.19051
体	-8.19151
あれ	-8.19156
ム	-8.19337
後	-8.19453
山	-8.19455
ニキ	-8.19717
日本	-8.1998
ち	-8.20274
0	-8.20296
行く	-8.20374
感	-8.2111
ちょっと	-8.21186
▁そもそも	-8.21188
問題	-8.21218
ちゃう	-8.21471
レス	-8.21522
られる	-8.2184
男	-8.22225
パ	-8.22407
ｗ	-8.22708
ウ	-8.22925
▁2	-8.2328
レ	-8.24014
▁ちな	-8.24029
ような	-8.24112
もん	-8.25129
】	-8.2519
広島	-8.25765
頭	-8.25996
ミ	-8.26155
んで	-8.26171
球団	-8.26217
グ	-8.2659
やる	-8.26709
 	-8.26862
だし	-8.27016
地	-8.27065
性	-8.27228
悪い	-8.27427
オ	-8.27595
所	-8.27662
どう	-8.277
的に	-8.28086
３	-8.28094
二	-8.28166
ず	-8.28173
仕事	-8.28224
ボ	-8.28228
みたい	-8.28396
！？	-8.29162
やと	-8.29543
ファン	-8.29768
言う	-8.30408
では	-8.30474
▁まだ	-8.30492
てる	-8.30589
セ	-8.30912
巨人	-8.31021
小	-8.31433
▁そら	-8.31563
みんな	-8.31788
じ	-8.3181
普通に	-8.31915
アニメ	-8.32045
負け	-8.32393
やってる	-8.32467
キ	-8.32853
ツ	-8.32862
草	-8.32918
模様	-8.32958
ジ	-8.3338
守備	-8.34047
なのに	-8.34295
なのか	-8.34307
高い	-8.34665
心	-8.34843
無い	-8.34863
阪神	-8.34925
フ	-8.35138
E	-8.35274
あった	-8.35337
▁【	-8.3547
強い	-8.35625
ねん	-8.3571
内	-8.35821
ω	-8.35826
定期	-8.35939
になって	-8.3599
-	-8.36093
しない	-8.36164
きた	-8.36576
面白い	-8.36617
軍	-8.36987
円	-8.37267
監督	-8.37349
ワイの	-8.37488
ボール	-8.37554
っていう	-8.3759
無理	-8.37751
いて	-8.37854
野	-8.37962
適当	-8.3804
大学	-8.38067
o	-8.38328
今日	-8.38436
足	-8.38955
優勝	-8.39411
ノ	-8.39769
サ	-8.40111
くる	-8.40239
ダ	-8.40434
やったら	-8.40496
▁おん	-8.40596
なくて	-8.40756
んやが	-8.40896
D	-8.41001
▁それは	-8.41001
いく	-8.41047
▁今日	-8.41428
！！	-8.41462
20	-8.41778
以外	-8.41796
様	-8.41848
▁ただ	-8.42057
P	-8.425
メ	-8.43666
全部	-8.43839
前に	-8.44045
ビ	-8.4419
々	-8.44205
んだよなぁ	-8.44287
欲しい	-8.44521
家	-8.44946
マン	-8.45201
やわ	-8.45432
みたいに	-8.45511
的な	-8.45596
▁じゃあ	-8.45645
打ち	-8.45758
▁サンガツ	-8.46311
ホームラン	-8.46338
ねぇ	-8.4649
やろな	-8.46598
ほど	-8.46613
ガ	-8.46801
へ	-8.46829
ゴ	-8.46865
しとる	-8.47346
神	-8.47529
出る	-8.47605
良かった	-8.47715
よね	-8.47733
あの	-8.47887
顔	-8.48015
こんな	-8.48226
しな	-8.4825
屋	-8.48345
エ	-8.48392
歳	-8.48405
もっと	-8.4851
いない	-8.48695
できない	-8.49124
▁あ	-8.49411
チ	-8.49668
もの	-8.49839
川	-8.49857
口	-8.49933
のこと	-8.50262
やろなぁ	-8.50305
行	-8.50594
ところ	-8.50746
しかない	-8.50755
失点	-8.50921
んやな	-8.50954
大谷	-8.51444
道	-8.5149
アウト	-8.51596
方が	-8.51895
したい	-8.51921
ネ	-8.51969
作	-8.52095
プ	-8.52181
？」	-8.52385
打線	-8.52481
かった	-8.52544
▁やっぱ	-8.52596
じゃなくて	-8.52722
ヤ	-8.52758
気がする	-8.53082
わからん	-8.53097
ハ	-8.53123
原	-8.53241
投げ	-8.53251
▁そんな	-8.53343
あと	-8.53354
化	-8.53399
ﾌ	-8.53436
▁あの	-8.53456
ニ	-8.53459
だぞ	-8.53634
長	-8.53752
ゾ	-8.53773
多い	-8.53933
e	-8.54001
学	-8.54025
ないから	-8.54369
すぎ	-8.54595
ど	-8.54668
線	-8.54909
なんだ	-8.55135
嫌い	-8.55776
よかった	-8.56018
元	-8.56164
楽	-8.56213
んかな	-8.56344
わかる	-8.5641
代	-8.56518
で草	-8.56882
の話	-8.57182
発	-8.57229
っぽい	-8.57257
されて	-8.57392
違う	-8.57508
ほしい	-8.57516
▁てか	-8.57647
水	-8.57706
横浜	-8.58091
店	-8.58392
▁とりあえず	-8.5841
不	-8.58457
▁やっぱり	-8.58504
味	-8.59012
モ	-8.59038
ですわ	-8.59084
やら	-8.59087
ラン	-8.59144
いける	-8.59157
以上	-8.59227
君	-8.59481
度	-8.5951
ではない	-8.59745
出来る	-8.59855
とは	-8.6007
無	-8.60088
同じ	-8.60139
結構	-8.60416
出て	-8.60416
出す	-8.60632
勝ち	-8.60721
イメージ	-8.60756
ねえ	-8.60757
直	-8.60838
めっちゃ	-8.60951
▁3	-8.61023
系	-8.61032
通	-8.61079
怖い	-8.61572
ご	-8.61918
デ	-8.622
すまんな	-8.62746
的	-8.62869
先	-8.62927
着	-8.62972
とる	-8.63114
すぎて	-8.63159
市	-8.6364
リー	-8.63699
おる	-8.63847
全然	-8.63881
中日	-8.63996
筒香	-8.64329
プロ	-8.64382
一番	-8.64502
やねん	-8.6495
場	-8.65353
無能	-8.65513
せん	-8.65533
▁そういや	-8.65597
30	-8.65637
▁何	-8.65704
面	-8.65884
敗	-8.65916
やない	-8.66007
▁正直	-8.6654
…？	-8.66668
▁今の	-8.66778
だな	-8.66882
絶対	-8.66902
が一番	-8.67123
ワ	-8.67215
車	-8.67435
リーグ	-8.67437
やからな	-8.67686
へん	-8.67983
ぐ	-8.6804
女	-8.68041
食	-8.68139
ふ	-8.68157
次	-8.68215
T	-8.68222
間	-8.68312
▁みんな	-8.68332
考え	-8.68357
そ	-8.6838
ように	-8.68694
ロッテ	-8.6871
び	-8.68739
B	-8.68798
やが	-8.6896
ぶ	-8.69026
が悪い	-8.69101
アカン	-8.69259
相手	-8.69354
すごい	-8.6945
っとる	-8.69484
打つ	-8.69731
人気	-8.69744
取り	-8.70148
▁ちょっと	-8.70356
▁ワイが	-8.70359
凄い	-8.70718
つく	-8.70737
会	-8.71154
すぎる	-8.7133
してない	-8.71494
見た	-8.71555
捕手	-8.716
サード	-8.71601
ソ	-8.71675
説	-8.71814
▁むしろ	-8.71819
にして	-8.71838
O	-8.71912
▁今日は	-8.72047
しても	-8.72176
ザ	-8.72214
s	-8.72256
なんだよなぁ	-8.7248
あり	-8.72526
調子	-8.72642
結果	-8.73123
.	-8.73205
中継ぎ	-8.73267
今の	-8.73757
かなり	-8.74162
ショート	-8.74703
100	-8.74707
派	-8.74892
されてる	-8.7523
はず	-8.75278
すら	-8.75401
んやろか	-8.75537
高校	-8.75553
最近	-8.75605
枠	-8.757
ほ	-8.75867
うまい	-8.75984
とき	-8.76049
イン	-8.76069
期待	-8.7613
キャラ	-8.76197
使う	-8.764
名前	-8.76615
ット	-8.76636
ピッチャー	-8.76873
海	-8.7697
法	-8.77212
なし	-8.77391
用	-8.77505
クレメンス	-8.77703
タイプ	-8.77814
県	-8.7782
ったら	-8.77829
しい	-8.77882
見る	-8.77888
ヒ	-8.77925
ダメ	-8.77931
人が	-8.7798
嫌	-8.77995
くなる	-8.77999
もある	-8.78082
るわ	-8.78116
でしょ	-8.78181
ワイが	-8.78469
そうな	-8.78625
アレ	-8.78804
言って	-8.78809
文	-8.7897
がない	-8.79104
ほんま	-8.7915
全員	-8.79192
テ	-8.79241
来	-8.79418
エラー	-8.79443
難しい	-8.7947
言い	-8.79496
R	-8.7955
あたり	-8.79581
丸	-8.79681
合	-8.79782
a	-8.79803
音	-8.7982
ても	-8.79825
新	-8.79879
四球	-8.79967
なんやろ	-8.79968
のほうが	-8.80123
すれば	-8.80192
スト	-8.80239
ネタ	-8.80256
時代	-8.8042
ばっか	-8.80554
時に	-8.80595
何か	-8.80635
はもう	-8.80852
誰	-8.80862
怪我	-8.80895
対	-8.81062
ます	-8.8122
▁というか	-8.8139
風	-8.81431
ヒット	-8.8161
ター	-8.81905
４	-8.81915
やってた	-8.81931
有能	-8.81991
曲	-8.82052
S	-8.8211
左	-8.8225
世界	-8.82357
るから	-8.82368
▁マ	-8.82546
!	-8.82727
しそう	-8.82751
笑	-8.82863
実	-8.83008
一人	-8.8314
んちゃう	-8.83216
島	-8.83378
声	-8.83461
すぐ	-8.83494
なく	-8.83953
▁結局	-8.83958
悪	-8.84072
空	-8.84212
山田	-8.84248
ぼ	-8.84487
らない	-8.84567
知らん	-8.8462
ケ	-8.84678
ぎ	-8.84726
王	-8.84955
億	-8.84977
んだよなあ	-8.85153
セカンド	-8.85157
スタメン	-8.85277
持ち	-8.85397
おらん	-8.85585
人は	-8.85586
ひ	-8.85656
ワイも	-8.85701
今年	-8.85723
かも	-8.85751
ハム	-8.85837
どうぞ	-8.85844
クラス	-8.85926
っと	-8.86007
漫画	-8.86294
ええやん	-8.86341
はない	-8.86432
打点	-8.86499
成績	-8.86515
るんや	-8.86628
映画	-8.86796
され	-8.86894
木	-8.86927
やろか	-8.8707
小声	-8.87139
好きな	-8.87244
やろなあ	-8.8737
つけ	-8.8751
そういう	-8.8756
組	-8.87578
▁広島	-8.87584
ないし	-8.87602
コーチ	-8.87608
思い	-8.87764
だよ	-8.87775
って感じ	-8.87813
すき	-8.87828
三振	-8.87902
▁多分	-8.87952
石	-8.88017
寝	-8.88143
ポ	-8.88156
▁ちなみに	-8.88353
える	-8.88458
人間	-8.88477
やっけ	-8.88511
ぁ	-8.88698
ゲ	-8.88698
12	-8.88706
なる	-8.8871
だったら	-8.88809
馬	-8.88891
菊池	-8.88986
入	-8.88999
▁すまんな	-8.8931
▁(*^◯^*)	-8.8932
流れ	-8.89321
▁実際	-8.89511
語	-8.89518
正	-8.89555
ピ	-8.89558
と思うで	-8.89602
ええな	-8.89641
菅野	-8.89828
全	-8.89868
５	-8.89901
だって	-8.89924
主	-8.89926
逆転	-8.89986
機	-8.90118
ないやろ	-8.90317
行って	-8.90421
お前	-8.90461
流	-8.90561
M	-8.90631
自分の	-8.90636
坂本	-8.9071
▁4	-8.9073
勉強	-8.90788
楽しい	-8.90797
けどな	-8.90857
かもしれん	-8.90945
L	-8.90984
出して	-8.90999
しゃーない	-8.91097
こう	-8.91149
ここ	-8.91208
買って	-8.91393
▁5	-8.91466
練習	-8.91567
｢	-8.91845
会社	-8.92051
なり	-8.92184
自	-8.9234
やり	-8.92356
なくなる	-8.92398
知	-8.92463
バー	-8.92544
あるんか	-8.92563
打撃	-8.92698
なさそう	-8.92703
p	-8.92793
ってこと	-8.92863
色	-8.92887
安	-8.92945
重	-8.93088
絵	-8.93353
早く	-8.93355
時点で	-8.9343
球場	-8.93459
明日	-8.93545
村	-8.93608
50	-8.9375
身	-8.93857
東京	-8.94162
愛	-8.94203
引き	-8.94364
▁そう	-8.94367
すると	-8.94401
▁最近	-8.94825
はある	-8.95004
見てる	-8.95099
できん	-8.95296
K	-8.95301
ミス	-8.9537
ドラ	-8.95394
んだよ	-8.95562
m	-8.95609
▁明日	-8.95728
らん	-8.95731
エース	-8.95764
そうやな	-8.95791
んの	-8.95863
印象	-8.9593
んじゃ	-8.96021
楽天	-8.96085
i	-8.96149
させて	-8.96163
必要	-8.96258
安打	-8.96385
15	-8.96537
るのは	-8.96688
だけや	-8.96755
←	-8.96811
ティ	-8.96839
ないと	-8.9698
と同じ	-8.96997
ちゃんと	-8.9706
理由	-8.97208
他の	-8.97368
▁日本	-8.9743
代表	-8.97507
はまだ	-8.97533
らしいで	-8.97618
入り	-8.97729
パン	-8.97818
今日は	-8.97844
のやつ	-8.98069
られた	-8.98099
知ってる	-8.98256
てた	-8.98338
意味	-8.9845
少ない	-8.98595
率	-8.98607
関係	-8.98733
N	-8.98773
立	-8.98798
ずっと	-8.98837
打者	-8.9891
De	-8.99059
ヤクルト	-8.99097
太	-8.99331
強	-8.99343
ないんか	-8.99375
来る	-8.99464
使って	-8.99646
育成	-8.99684
かね	-8.99781
役	-8.99831
打った	-8.99848
U	-8.99897
G	-9.00019
ながら	-9.00081
からね	-9.001
アメリカ	-9.00125
なきゃ	-9.00142
t	-9.00151
チャンス	-9.00183
クッソ	-9.00265
買う	-9.00273
付け	-9.0038
▁大	-9.00423
れて	-9.00424
/	-9.00467
べ	-9.0047
めて	-9.00605
c	-9.00703
しろ	-9.00798
歌	-9.00826
戦争	-9.00859
わね	-9.00902
星	-9.01026
評価	-9.01037
んちゃうか	-9.01131
有	-9.01238
▁巨人	-9.01263
k	-9.01404
▁逆に	-9.01494
ました	-9.0163
シーズン	-9.01665
誰か	-9.01674
カード	-9.01829
上げ	-9.01969
▁また	-9.02003
場所	-9.02017
▁去年	-9.02078
使い	-9.02116
ないけど	-9.02128
ないで	-9.02145
ええで	-9.02233
野手	-9.02265
弱	-9.02546
それは	-9.02673
というか	-9.02684
応援	-9.02735
が多い	-9.02769
飯	-9.02775
▁昨日	-9.02781
初	-9.02877
美	-9.02881
得	-9.02933
持って	-9.03216
余裕	-9.03352
･･･	-9.03539
終わり	-9.03546
抑え	-9.03642
書	-9.03775
能力	-9.03802
明	-9.03839
カープ	-9.03867
くれ	-9.03887
▁だから	-9.03965
たけど	-9.03992
落ち	-9.04066
くて	-9.04187
させる	-9.04273
分かる	-9.04397
敵	-9.04443
ベ	-9.0447
おかしい	-9.04571
ですね	-9.04599
投げる	-9.04603
低	-9.04708
▁お前	-9.04733
どんな	-9.04739
F	-9.04753
扱い	-9.0479
右	-9.04839
たわ	-9.04883
ほとんど	-9.04912
考えて	-9.04963
▁ええんやで	-9.05118
他	-9.0514
平	-9.05199
いって	-9.05277
こそ	-9.05287
ｰ	-9.05334
普通	-9.05767
打てる	-9.05801
終わった	-9.05904
井	-9.05985
ぇ	-9.05996
外野	-9.05999
親	-9.06001
熱	-9.06028
▁菅野	-9.06167
産	-9.0618
からなぁ	-9.06221
西	-9.06272
あるで	-9.06278
▁別に	-9.0629
期	-9.06291
知らない	-9.06319
石川	-9.06367
▁大谷	-9.06374
コン	-9.06396
とった	-9.06527
分からん	-9.06594
ぜ	-9.06614
サンガツ	-9.06688
言	-9.0672
行った	-9.06751
かどうか	-9.06757
品	-9.06812
にする	-9.07005
裏	-9.07196
おった	-9.07256
見たい	-9.0729
誰も	-9.07401
形	-9.07422
つか	-9.07502
:	-9.07552
｣	-9.07632
n	-9.07696
打率	-9.07756
多分	-9.07825
なくても	-9.07868
▁阪神	-9.07887
▁あっ	-9.08144
登板	-9.08166
ろう	-9.08183
食べ	-9.08211
ことを	-9.08312
ええやろ	-9.08376
▁そういえば	-9.08563
時は	-9.08659
くない	-9.08815
別	-9.08826
u	-9.08861
ばっかり	-9.08986
代打	-9.09163
みて	-9.09208
出来	-9.09216
ぬ	-9.09459
入れ	-9.09482
田中	-9.09541
当たり	-9.0957
駅	-9.09695
せる	-9.09745
やったな	-9.09814
社会	-9.09826
▁うーん	-9.09827
と思って	-9.09958
出た	-9.0996
そんなに	-9.10019
▁ファッ	-9.10166
ガン	-9.10288
ってた	-9.10293
まあ	-9.10374
的には	-9.10376
･`	-9.10443
あんまり	-9.1067
ック	-9.10794
夜	-9.10808
子供	-9.11022
きて	-9.11056
客	-9.11067
少し	-9.11068
なー	-9.11098
センター	-9.11128
ギ	-9.1118
若手	-9.11196
▁筒香	-9.11298
▁普通に	-9.11353
げ	-9.11417
▁すまん	-9.11439
最強	-9.11484
広	-9.11516
気持ち	-9.11612
勝負	-9.11648
ざ	-9.11685
側	-9.11717
▁今日の	-9.11746
あって	-9.11834
勝てる	-9.11868
相手に	-9.11882
と思った	-9.119
んな	-9.11992
同	-9.12017
なんだよなあ	-9.12083
変わる	-9.12096
勝った	-9.12196
思う	-9.12205
宮	-9.12234
ですか	-9.12447
って何	-9.12461
全く	-9.12465
東	-9.12595
去年	-9.12614
なんとか	-9.12743
ネット	-9.13
メジャー	-9.13014
ﾟ	-9.13055
さんは	-9.13079
俺	-9.13135
作品	-9.13171
論	-9.13243
台	-9.13446
真	-9.13554
んだけど	-9.13598
情報	-9.1372
ないぞ	-9.13749
最高	-9.13792
あかん	-9.13818
席	-9.13971
作って	-9.14079
んやろな	-9.14099
中田	-9.14117
確率	-9.14489
ディ	-9.1454
どっち	-9.14647
困惑	-9.14734
定	-9.1476
西武	-9.14844
型	-9.14857
北	-9.14879
ID	-9.14886
は何	-9.14931
なければ	-9.15027
藤浪	-9.15038
倍	-9.15058
バント	-9.15061
イニング	-9.15091
状態	-9.15229
やったわ	-9.15302
返	-9.15323
I	-9.15386
連敗	-9.15426
実況	-9.15467
テレビ	-9.15645
小林	-9.15776
マー	-9.15814
大阪	-9.15927
これは	-9.15983
れた	-9.16035
11	-9.16132
40	-9.1618
んねん	-9.16307
指名	-9.16327
▁しかも	-9.16348
引退	-9.16364
ってのは	-9.16367
経験	-9.16369
るんやで	-9.16376
心配	-9.16469
▁しかし	-9.16598
出した	-9.16629
カー	-9.16664
打席	-9.16669
▁ほんま	-9.16724
やばい	-9.16774
白目	-9.16817
www	-9.16835
別に	-9.16883
だわ	-9.16922
一回	-9.17091
フライ	-9.1713
まず	-9.17254
言葉	-9.17274
るで	-9.17277
かん	-9.17301
ドラフト	-9.17463
スター	-9.17545
取って	-9.17546
▁こんな	-9.17575
盗塁	-9.17815
関	-9.17871
酒	-9.18015
嘘	-9.18022
▁イッチは	-9.18027
とも	-9.18062
結局	-9.18089
いった	-9.1809
土	-9.18145
スポーツ	-9.18176
の人	-9.18243
▁せやな	-9.18289
天	-9.18378
バレ	-9.18391
ロー	-9.18433
してくれ	-9.18464
に行く	-9.18479
気が	-9.18497
ホ	-9.18507
花	-9.18508
上手い	-9.18555
への	-9.18701
よりも	-9.18707
FA	-9.18724
弱い	-9.18829
動	-9.18883
打って	-9.18897
観	-9.19025
ンゴねえ	-9.19156
訳	-9.19218
近	-9.19219
候補	-9.19232
やっぱり	-9.19262
▁そうなんか	-9.19314
ほんと	-9.19329
入って	-9.19338
ほぼ	-9.19587
出てくる	-9.19652
来て	-9.19725
▁さすがに	-9.19796
肉	-9.19853
アク禁	-9.19875
版	-9.19941
HR	-9.19959
たくない	-9.20004
居	-9.20041
ゆ	-9.20216
だよな	-9.2028
薬	-9.20296
しっかり	-9.203
悲報	-9.20302
質	-9.20355
ちゃ	-9.20382
点差	-9.20494
人生	-9.2057
200	-9.2063
そこまで	-9.20636
打て	-9.20639
ﾊ	-9.20658
▁今年	-9.20664
もない	-9.20667
何も	-9.20689
▁確かに	-9.20702
取る	-9.20707
▁これで	-9.20733
光	-9.20794
板	-9.20982
わな	-9.21007
出し	-9.21024
解	-9.21026
白	-9.21075
ついて	-9.21244
やないか	-9.21248
鉄	-9.21346
言ってる	-9.21348
かよ	-9.21365
血	-9.21379
多	-9.21629
日本人	-9.21633
くれる	-9.21754
んやろなぁ	-9.2176
進	-9.21775
成	-9.21793
マジで	-9.2185
アン	-9.21927
んですかね	-9.22005
火	-9.22027
運	-9.22214
主人公	-9.22217
っけ	-9.2225
になってる	-9.22256
生活	-9.22259
首	-9.2234
友達	-9.2242
r	-9.22726
前の	-9.22879
られて	-9.22917
辛い	-9.22969
切り	-9.23024
動画	-9.23062
奴は	-9.23147
ｊ	-9.23204
勝利	-9.23207
ええんか	-9.23208
わけ	-9.23211
ちゃうか	-9.23396
フル	-9.23412
じゃん	-9.2343
色々	-9.2348
しよう	-9.23551
以降	-9.23573
▁一	-9.23644
嬉しい	-9.23804
確定	-9.23866
やと思う	-9.23943
低い	-9.23951
夢	-9.23956
はどう	-9.24004
める	-9.24043
▁こういう	-9.24093
量	-9.24155
入る	-9.24225
どこ	-9.24227
横	-9.24251
あんま	-9.24256
▁野球	-9.24435
いたら	-9.24475
になりそう	-9.24536
予想	-9.24688
っちゃ	-9.24731
先生	-9.24799
和	-9.24839
米	-9.24875
日本の	-9.25136
こいつ	-9.25168
▁あー	-9.25386
ると	-9.25386
弾	-9.25411
している	-9.25509
意	-9.25514
▁ええ	-9.25578
松	-9.256
断	-9.25786
られない	-9.2579
治	-9.25797
豚	-9.25813
んのか	-9.26059
式	-9.26063
だっけ	-9.26127
防御率	-9.26155
失	-9.26161
X	-9.26192
下手	-9.26228
いつも	-9.26245
大丈夫	-9.26281
相	-9.2638
やしな	-9.2648
だと思う	-9.26488
谷	-9.26507
例	-9.26534
れない	-9.2664
やすい	-9.26669
ありそう	-9.26783
エル	-9.26786
キロ	-9.26874
腹	-9.27
こういう	-9.27033
さんが	-9.27157
▁菊池	-9.27254
▁中日	-9.27421
ーン	-9.27424
塁	-9.27432
ペ	-9.27491
早い	-9.2752
ップ	-9.2759
程度	-9.27625
権	-9.27649
記録	-9.27725
イケメン	-9.27743
そこそこ	-9.27839
そのまま	-9.27862
カン	-9.28006
頑張って	-9.28007
出てる	-9.28031
について	-9.28071
▁おは	-9.28133
本当に	-9.28153
かけ	-9.2828
良	-9.28294
▁一応	-9.28447
悲しい	-9.28496
セーフ	-9.28526
聞いて	-9.28614
ないか	-9.28636
指	-9.28662
人の	-9.28754
可愛い	-9.28833
早	-9.28972
再	-9.28972
て草	-9.29062
社	-9.29114
と思うわ	-9.29129
意識	-9.29278
作る	-9.29282
おもろい	-9.29334
森	-9.29359
残	-9.29481
肩	-9.29716
ええわ	-9.29743
番組	-9.29851
学校	-9.29869
そもそも	-9.29881
好	-9.29935
▁あれは	-9.29941
読み	-9.2995
ラー	-9.30024
年齢	-9.30063
NG	-9.30075
作った	-9.30157
やなぁ	-9.30213
▁えぇ	-9.30264
▁6	-9.3039
撃	-9.30395
合い	-9.30418
▁山田	-9.30462
しゃ	-9.30586
でき	-9.30633
通り	-9.30712
そろそろ	-9.30724
のかな	-9.30766
やきう	-9.30783
予定	-9.30858
二人	-9.30862
古	-9.30896
受け	-9.30898
サッカー	-9.31142
▁どうせ	-9.31163
b	-9.31173
逆	-9.31227
無し	-9.31324
二軍	-9.31342
ください	-9.31671
▁金	-9.31769
▁ヤクルト	-9.31791
何が	-9.31817
なくなった	-9.31828
復活	-9.31845
んやぞ	-9.31929
の時	-9.32041
ｯ	-9.32055
勝つ	-9.32064
▁楽天	-9.32076
ポジ	-9.32091
込み	-9.32164
年目	-9.32286
の方	-9.32359
▁横浜	-9.32526
h	-9.32536
一つ	-9.32567
▁そういう	-9.32576
さんの	-9.32654
根	-9.32667
負けた	-9.32783
過ぎ	-9.32806
l	-9.32905
たん	-9.32925
ここまで	-9.33019
６	-9.33113
タイムリー	-9.3328
業	-9.33361
まる	-9.33444
▁10	-9.33535
ときは	-9.33585
なのは	-9.33615
ホーム	-9.33626
んだから	-9.33691
辺り	-9.33784
煽り	-9.33827
！！！	-9.33927
来た	-9.34026
岡	-9.34094
内容	-9.34306
来年	-9.34313
ローテ	-9.34346
できた	-9.34527
25	-9.34585
んやね	-9.34658
かい	-9.34662
勝って	-9.34697
謎	-9.34748
ゲー	-9.34822
中国	-9.35002
ライ	-9.35067
ルール	-9.35104
わい	-9.35111
ずに	-9.35168
ライト	-9.35261
▁ここ	-9.35267
最下位	-9.35331
当然	-9.35379
▁ア	-9.35506
オリックス	-9.35512
中継	-9.35631
▁ロッテ	-9.3575
難	-9.35779
たから	-9.35803
▁そして	-9.35843
ハイ	-9.35873
ヨ	-9.3591
黒	-9.35946
変な	-9.3596
ラーメン	-9.36148
女の子	-9.36277
による	-9.36283
私	-9.36358
の問題	-9.3641
得点	-9.36513
このスレ	-9.36532
×	-9.36583
表	-9.36595
連	-9.36696
四	-9.36751
･´)	-9.36753
ｗｗｗ	-9.36839
場合	-9.36893
だが	-9.36935
追い	-9.36936
張	-9.3699
趣味	-9.37005
いかん	-9.37018
ないわ	-9.37036
の選手	-9.37088
があった	-9.37129
地方	-9.37152
g	-9.37213
かけて	-9.3732
公	-9.37359
ノー	-9.37378
…(	-9.37396
d	-9.37411
放送	-9.37425
乗	-9.37485
本当	-9.3761
あるから	-9.37726
ことは	-9.37737
WBC	-9.37757
個	-9.37772
リリーフ	-9.37851
鬼	-9.37852
見たら	-9.3801
ストレート	-9.38032
H	-9.38051
打てない	-9.38126
つもり	-9.38158
ハゲ	-9.38238
やめ	-9.38242
▁なぜ	-9.38353
教えて	-9.384
▁今は	-9.38432
やっぱ	-9.38489
モン	-9.38579
言った	-9.38678
▁三	-9.38678
日ハム	-9.38708
設定	-9.3871
不安	-9.3873
やったけど	-9.38793
半	-9.39009
買った	-9.39013
▁せやで	-9.39022
つけて	-9.3907
ジャ	-9.39087
髪	-9.39131
なかったら	-9.39149
たし	-9.39161
なかなか	-9.39292
▁坂本	-9.39297
ゼ	-9.3937
ほうが	-9.39429
パー	-9.39542
９	-9.39575
専	-9.39595
層	-9.39721
差	-9.39755
制	-9.39763
▁まず	-9.39853
理	-9.3987
マシ	-9.39883
▁もっと	-9.39944
暇	-9.40009
殿	-9.40009
▁今北	-9.40068
関係ない	-9.40108
答え	-9.4017
五	-9.40307
ええんやで	-9.40403
良く	-9.40653
取	-9.40691
毛	-9.40885
朝	-9.40893
打	-9.409
なって	-9.40923
▁パ	-9.40938
世代	-9.40972
いけ	-9.41044
いっぱい	-9.41069
▁今年の	-9.41121
頃	-9.41123
持ってる	-9.41209
忘れ	-9.41298
▁小林	-9.41314
鷲	-9.41325
教えてクレメンス	-9.41343
トップ	-9.41356
▁ID	-9.41382
ルーキー	-9.41397
あるし	-9.41444
たまに	-9.41453
ファースト	-9.41467
してくれる	-9.41491
十分	-9.41494
鷹	-9.41532
▁西武	-9.41649
▁小	-9.41675
あまり	-9.41718
文句	-9.41772
説明	-9.41792
急	-9.41969
なった	-9.41996
がいる	-9.42013
お前ら	-9.42154
総	-9.42183
町	-9.42212
８	-9.42212
しまった	-9.42218
種	-9.42227
長い	-9.42293
いう	-9.42313
▁つまり	-9.42379
聞く	-9.42392
と思ってる	-9.42421
彼女	-9.42487
山口	-9.42506
尾	-9.42617
特	-9.42701
うち	-9.42702
やつは	-9.42706
▁8	-9.42745
からなあ	-9.42864
あげ	-9.42902
厳しい	-9.42903
▁なるほど	-9.42951
反	-9.4307
＝	-9.43107
声優	-9.43132
最	-9.43139
上がる	-9.43147
があるから	-9.43166
誰が	-9.43217
って言う	-9.4325
▁それが	-9.43311
世	-9.43312
失敗	-9.43345
ません	-9.43416
痛い	-9.43431
んやから	-9.4347
シリーズ	-9.4347
▁ここで	-9.43518
CS	-9.43565
シー	-9.43615
▁ハム	-9.43643
上手く	-9.43855
オリ	-9.43917
グラ	-9.43932
電	-9.43933
かもしれない	-9.44011
可能性	-9.44031
のせい	-9.44088
中に	-9.44172
契約	-9.4424
昨日	-9.44245
格	-9.44285
城	-9.44313
▁石川	-9.44336
たち	-9.44356
すぎやろ	-9.44374
投げて	-9.4438
玉	-9.44431
ニー	-9.44441
賞	-9.44461
楽しみ	-9.44651
からセーフ	-9.44722
▁次	-9.44734
.2	-9.44752
くなった	-9.44758
終わる	-9.44763
食う	-9.4482
アップ	-9.44862
Y	-9.44889
としては	-9.44916
ﾝ	-9.44917
かわいい	-9.4495
アンチ	-9.45016
ガー	-9.45017
走	-9.45043
がいい	-9.45147
えて	-9.45201
結婚	-9.4521
だけは	-9.45373
魚	-9.45376
どの	-9.45482
れてる	-9.45679
取った	-9.45701
正直	-9.45871
やりたい	-9.45895
参加	-9.46103
勝て	-9.46165
なんやな	-9.46218
わからない	-9.46223
区	-9.4626
書いて	-9.46295
コントロール	-9.46304
倉本	-9.46355
られ	-9.464
▁こいつ	-9.46501
たんや	-9.46531
▁流石に	-9.46534
座	-9.46669
までは	-9.46692
行き	-9.46692
以外は	-9.46807
大好き	-9.46812
▁藤浪	-9.46818
ァ	-9.46824
するわ	-9.46864
リード	-9.46865
方法	-9.46904
満	-9.47094
なんやで	-9.47125
f	-9.47145
仕	-9.47166
▁9	-9.47248
いかんのか	-9.47278
記憶	-9.47323
▁そろそろ	-9.47391
入れて	-9.47413
イッチは	-9.47445
それで	-9.4747
W	-9.4748
やめろ	-9.4759
行ける	-9.47599
さえ	-9.47627
まぁ	-9.47633
乱	-9.47687
初めて	-9.47688
パターン	-9.47695
攻撃	-9.47741
解説	-9.47755
だろう	-9.47806
田舎	-9.47811
外国人	-9.47826
ゴロ	-9.47892
▁今年は	-9.47942
行け	-9.48005
福	-9.4801
18	-9.48027
なんやけど	-9.48028
ガチ	-9.48035
るの	-9.48083
一軍	-9.48145
▁お前ら	-9.48196
▁中	-9.48228
込んで	-9.48235
としても	-9.48343
時の	-9.4835
以下	-9.48368
達	-9.48446
痛	-9.48456
ってなんや	-9.48507
のために	-9.48516
教	-9.48563
○	-9.48636
叩き	-9.48694
美味い	-9.48708
困る	-9.48738
アー	-9.4875
▁去年の	-9.48752
でいい	-9.48999
逆に	-9.49056
割と	-9.4907
極	-9.49116
自分で	-9.49168
今日の	-9.49257
鳥谷	-9.49339
集	-9.49394
負ける	-9.4949
未来	-9.49618
んだが	-9.49645
数字	-9.49648
若い	-9.4966
聞いた	-9.49672
…」	-9.49723
酷い	-9.49741
画像	-9.49794
カレー	-9.49834
上がって	-9.49908
入れる	-9.50025
▁草	-9.50039
ユニ	-9.50158
ところで	-9.50216
▁正解	-9.5023
▁なん	-9.50299
素	-9.50319
してたら	-9.5032
鈴木	-9.50367
甲子園	-9.50382
のせいで	-9.50384
▁あとは	-9.50533
立ち	-9.50603
べき	-9.50613
にならん	-9.5062
とう	-9.50626
シーン	-9.50693
たり	-9.50694
かなぁ	-9.50794
おっさん	-9.50806
y	-9.50833
勢	-9.50871
キャ	-9.50883
よりは	-9.50883
岡田	-9.50916
るし	-9.51066
人に	-9.51077
▁東京	-9.512
タイ	-9.51296
▁セ	-9.51311
いや	-9.51333
共	-9.51335
▁よく	-9.51372
▁どんな	-9.51382
落	-9.51409
腕	-9.5147
号	-9.51479
ポイント	-9.51526
特定	-9.51555
事実	-9.51575
にしても	-9.51687
の名前	-9.51699
みた	-9.51704
ニュース	-9.51724
食い	-9.51742
ウチ	-9.51825
V	-9.51972
等	-9.52021
状況	-9.52033
赤	-9.52046
振り	-9.5205
電話	-9.52171
ええか	-9.52233
超	-9.52244
したり	-9.52281
やなくて	-9.52392
上に	-9.52393
雨	-9.52429
全て	-9.52475
工	-9.52479
釣り	-9.52486
要素	-9.52521
60	-9.5254
飲み	-9.52586
かもな	-9.52655
過	-9.52872
単	-9.52894
になったら	-9.53045
かわいそう	-9.53056
バット	-9.53106
ベース	-9.53136
イッチの	-9.53146
って話	-9.53317
打球	-9.53405
込む	-9.53516
▁ほんこれ	-9.5352
現役	-9.5353
くらいの	-9.53559
戦力	-9.53712
有名	-9.53719
皆	-9.53723
が好き	-9.53868
空気	-9.53877
違い	-9.53928
街	-9.54018
立て	-9.54074
村田	-9.54091
ヘ	-9.54102
女性	-9.54154
あるけど	-9.54179
休み	-9.5423
▁なんでや	-9.54419
切れ	-9.54426
取れる	-9.54487
習	-9.54487
服	-9.54507
ホンマ	-9.5457
一応	-9.54605
てない	-9.54659
活躍	-9.54665
千	-9.54668
19	-9.54669
ってのが	-9.5478
まとめ	-9.54835
サー	-9.54837
連続	-9.54837
半分	-9.54865
武	-9.5492
つける	-9.5495
ベンチ	-9.54991
近く	-9.5501
ゲッツー	-9.55026
言えば	-9.55057
クリ	-9.55068
んだよな	-9.55132
▁7	-9.55187
使える	-9.55224
るけど	-9.55273
大会	-9.5529
▁イッチの	-9.55324
たま	-9.55348
時期	-9.55403
が違う	-9.55441
プレー	-9.5547
チャ	-9.55527
トレード	-9.55533
パワー	-9.5556
やっとる	-9.5565
小説	-9.55652
十	-9.5567
並	-9.55774
安心	-9.55902
▁先発	-9.55916
費	-9.55997
でもない	-9.56009
どうやって	-9.56031
雪	-9.56044
は無い	-9.56049
震え声	-9.56049
フォーク	-9.56072
よー	-9.56073
どういう	-9.56101
ヤバい	-9.56158
阿部	-9.56218
ライン	-9.56235
出来ない	-9.56255
渡	-9.56288
年間	-9.56362
涙	-9.56511
損	-9.56557
にある	-9.56567
職	-9.56581
昔	-9.56584
どっちが	-9.56678
ちな	-9.5673
.3	-9.5674
現	-9.56813
かかる	-9.56842
角	-9.56874
ある程度	-9.5693
命	-9.56952
上げて	-9.56955
考えたら	-9.57002
微妙	-9.57006
復帰	-9.57006
激	-9.57046
不可避	-9.57072
してるから	-9.57072
クロ	-9.57112
今年は	-9.57153
▁ここまで	-9.57187
▁中田	-9.57243
させ	-9.57298
見ると	-9.57339
それを	-9.57357
平田	-9.57367
信	-9.57368
シャ	-9.57429
消	-9.57441
16	-9.57445
沢	-9.57459
やろう	-9.57462
勢い	-9.57504
レギュラー	-9.5759
+	-9.5759
終わって	-9.57731
こい	-9.57731
によって	-9.57797
配	-9.57809
ないんや	-9.57825
レフト	-9.57859
ランナー	-9.57866
じゃね	-9.57918
結	-9.58068
調整	-9.58113
実際	-9.58126
られてる	-9.58134
▁田中	-9.58243
▁男	-9.5827
サヨナラ	-9.5827
サン	-9.5829
マジ	-9.58319
春	-9.58357
話題	-9.58421
毎日	-9.58455
望	-9.58551
^	-9.58558
鳥	-9.58564
ええんや	-9.58611
可哀想	-9.58635
▁いま	-9.58654
もいい	-9.58671
▁ああ	-9.58739
向け	-9.58782
▁なに	-9.58828
写真	-9.58828
南	-9.58924
るやろ	-9.58955
こっち	-9.58973
ちゃうんか	-9.5901
▁そんなん	-9.59054
言われる	-9.59202
▁うーんこの	-9.59236
速	-9.59318
1000	-9.59336
ことない	-9.59405
からしゃーない	-9.59481
とかも	-9.59515
枚	-9.59523
の試合	-9.59536
するのは	-9.59542
外れ	-9.59612
作り	-9.59613
感覚	-9.59623
あんな	-9.59625
毎回	-9.59775
▁せや	-9.59781
リン	-9.59791
炎上	-9.59814
あげて	-9.59841
江	-9.59884
ハマ	-9.59947
当	-9.60014
変え	-9.60046
はどこ	-9.60137
切	-9.60157
波	-9.60199
固定	-9.60227
自由	-9.60272
長野	-9.60302
トリ	-9.60364
捕	-9.60393
級	-9.60502
越	-9.60562
るか	-9.60584
のお	-9.60645
いつ	-9.60661
大人	-9.60672
覚え	-9.6073
娘	-9.60755
地震	-9.60777
にくい	-9.60784
速報	-9.6089
ときに	-9.61116
そうや	-9.61135
の守備	-9.61228
完封	-9.6127
展開	-9.61295
努力	-9.61295
正解	-9.61343
バン	-9.61558
ﾘ	-9.61821
やろうし	-9.61833
審判	-9.61837
読む	-9.6185
安価	-9.61852
秋山	-9.61866
出ない	-9.61869
きつい	-9.61874
▁前	-9.61891
何で	-9.6195
決め	-9.61952
打ってる	-9.61959
間に	-9.61963
うどん	-9.61987
ことが	-9.61994
出てきた	-9.62074
▁いつも	-9.6209
自分	-9.62092
橋	-9.62205
クビ	-9.62308
文字	-9.62309
んご	-9.62355
余	-9.62373
一塁	-9.62381
平均	-9.62381
納得	-9.62382
現実	-9.62401
どっか	-9.62462
行きたい	-9.62482
遊	-9.62558
れん	-9.62595
るんか	-9.62726
たか	-9.62733
破	-9.629
補強	-9.62937
身長	-9.62964
ビール	-9.62967
まま	-9.63028
加	-9.6311
プレイ	-9.63231
▁0	-9.63278
書き	-9.63337
そこ	-9.63354
さま	-9.6337
ックス	-9.63419
最悪	-9.63492
若	-9.63498
あるやろ	-9.6353
-1	-9.63581
ガキ	-9.63588
ないです	-9.63641
みたいなの	-9.63654
雰囲気	-9.63673
女子	-9.63687
500	-9.6369
してほしい	-9.63751
やろうけど	-9.63781
なに	-9.63797
らしいな	-9.63867
終了	-9.63886
トン	-9.63969
兵	-9.64012
ストライク	-9.64024
希望	-9.64028
機能	-9.64036
とはいえ	-9.64072
限	-9.64144
ブラ	-9.64189
乗り	-9.64192
次第	-9.64203
つまらん	-9.64221
カット	-9.64226
草生える	-9.64352
すまん	-9.64382
▁なんや	-9.64442
出身	-9.64442
おい	-9.64568
ハラデイ	-9.64583
データ	-9.647
放	-9.64723
気になる	-9.64752
両	-9.64842
一発	-9.64875
政治	-9.64999
▁このスレ	-9.65061
覚醒	-9.65115
技	-9.65131
批判	-9.6518
叩く	-9.65188
仲間	-9.652
確か	-9.65394
則本	-9.65407
落ちる	-9.65411
自信	-9.65425
2000	-9.65438
してて	-9.65457
今まで	-9.65461
オススメ	-9.65501
安い	-9.65523
見れる	-9.65529
病院	-9.65544
・・	-9.65599
就職	-9.65705
んやない	-9.65792
やったし	-9.65794
あれば	-9.65836
うまく	-9.65841
ねー	-9.65872
止め	-9.65895
試	-9.65995
責任	-9.66044
近い	-9.66067
僕	-9.66146
精神	-9.66183
するから	-9.66216
経	-9.66219
環境	-9.66268
先輩	-9.66269
食って	-9.66306
音楽	-9.66313
言える	-9.66327
ために	-9.66343
＞	-9.66392
書く	-9.6654
猫	-9.66596
小久保	-9.66618
気に	-9.66812
これで	-9.66835
ヒロイン	-9.6684
いきなり	-9.66845
程	-9.66914
と思うけど	-9.66937
るぞ	-9.6694
▁イッチが	-9.66948
やれ	-9.66983
いま	-9.67009
なんやが	-9.67023
こんなに	-9.67032
これから	-9.67188
陣	-9.67254
路	-9.67318
援護	-9.6737
英	-9.6739
交代	-9.67414
どこに	-9.67442
逃げ	-9.67548
頼む	-9.67561
守	-9.67583
CM	-9.67696
or	-9.67715
青	-9.67717
ノリ	-9.67738
アイ	-9.67774
やったから	-9.67804
糸井	-9.67824
どうなん	-9.67848
坂	-9.67868
開	-9.6787
の中で	-9.67897
虫	-9.67982
想像	-9.67983
技術	-9.67985
お金	-9.67987
電車	-9.68004
ただ	-9.68021
は無理	-9.68058
料理	-9.68076
言われ	-9.68099
勝手に	-9.68179
選手が	-9.68188
読んで	-9.68233
▁誰か	-9.68418
今年の	-9.68442
ええけど	-9.68447
▁高	-9.68457
変わった	-9.68473
ｲ	-9.68553
'	-9.6856
：	-9.6856
ですら	-9.68603
80	-9.68645
新しい	-9.68661
▁え	-9.68678
虎	-9.68717
最後の	-9.6885
基本	-9.68862
▁カープ	-9.68906
変わらん	-9.68939
んやけどな	-9.68942
13	-9.68958
▁やったぜ	-9.68977
みたら	-9.68982
内野	-9.69018
学生	-9.69027
かっこいい	-9.69029
言ってた	-9.69058
るべき	-9.69102
ベテラン	-9.69141
京	-9.69175
交流戦	-9.6918
ここで	-9.69256
なぜ	-9.69266
スマホ	-9.69292
遠	-9.69374
▁新	-9.69451
あったら	-9.69454
個人	-9.69529
ことに	-9.69622
考える	-9.69628
ため	-9.69649
夏	-9.69651
牧田	-9.69683
志	-9.69719
=	-9.69726
▁ぶっちゃけ	-9.6978
よなぁ	-9.69787
▁１	-9.69793
未	-9.698
▁さっき	-9.69817
奴が	-9.69864
７	-9.6987
上位	-9.69884
考えると	-9.69904
14	-9.69951
するんや	-9.69956
合わせ	-9.70096
ダー	-9.70247
かもしれんが	-9.70252
バッター	-9.70315
確認	-9.70315
るのか	-9.70345
▁もし	-9.70352
脱	-9.70383
後半	-9.7045
ほんまに	-9.70524
▁小久保	-9.70566
普通の	-9.70649
特に	-9.70666
非	-9.70699
松田	-9.70724
にいる	-9.70782
脳	-9.7083
寝る	-9.7086
やめて	-9.7089
フォーム	-9.70915
既に	-9.70926
岸	-9.71004
校	-9.71103
ること	-9.71117
駄目	-9.71139
んだろ	-9.7116
無かった	-9.7118
まって	-9.712
▁アメリカ	-9.7122
しまう	-9.71231
ますわ	-9.71234
そうやけど	-9.71319
ワン	-9.7135
があって	-9.71357
完全	-9.71364
ヶ月	-9.71403
彼	-9.71469
八	-9.71486
映	-9.71489
日に	-9.71494
開幕	-9.71505
サイト	-9.71525
周り	-9.71534
ぃ	-9.71568
てくれ	-9.71582
後に	-9.71659
の成績	-9.71706
ころ	-9.71752
員	-9.71763
ぉ	-9.71767
球速	-9.71837
んやっけ	-9.71846
にした	-9.71857
24	-9.72003
陽	-9.72003
御	-9.72094
官	-9.72097
壁	-9.721
朗報	-9.72102
平和	-9.72119
器	-9.72151
部分	-9.72176
するんやで	-9.72192
エエ	-9.72201
キャッチャー	-9.72208
生き	-9.72213
たくさん	-9.72256
限り	-9.72264
事件	-9.72287
そら	-9.7229
一緒に	-9.72391
▁はい	-9.72398
だけやろ	-9.72402
▁サンキュー	-9.72441
変	-9.72452
▁左	-9.7249
今は	-9.72496
病	-9.72594
巻	-9.72634
それが	-9.72673
▁まさか	-9.72683
大変	-9.72693
いろいろ	-9.72703
采配	-9.72703
教育	-9.72708
簡単に	-9.72843
いくら	-9.729
キレ	-9.72924
を見	-9.72986
ただの	-9.72999
すること	-9.73038
ってことは	-9.73112
門	-9.73132
害	-9.73289
油	-9.73299
ぅ	-9.73308
くっそ	-9.73316
ポジション	-9.73316
投	-9.7341
のイメージ	-9.73482
英語	-9.73518
幸せ	-9.73544
って事	-9.73559
▁おっ	-9.7361
企業	-9.73673
んやろなあ	-9.73689
ことある	-9.73705
いじめ	-9.73725
情	-9.73743
自体	-9.73747
って言ってた	-9.73769
思った	-9.73797
かわ	-9.73817
したんや	-9.73907
Ｊ	-9.73918
移籍	-9.73919
でござる	-9.73927
本塁打	-9.73931
杉内	-9.73935
売り	-9.73942
意見	-9.73955
先に	-9.73957
たな	-9.74039
したから	-9.7406
▁そりゃ	-9.74076
やなあ	-9.74155
やけどな	-9.74159
90	-9.74162
高卒	-9.74174
出場	-9.74175
質問	-9.74204
見える	-9.74251
▁オリックス	-9.74273
いらん	-9.74368
しながら	-9.7444
▁元	-9.74445
▁何で	-9.74447
▁一番	-9.74448
んですが	-9.74466
▁他の	-9.74484
めちゃくちゃ	-9.74532
▁まーた	-9.74532
相当	-9.74543
▁？？？「	-9.74548
といい	-9.74564
カル	-9.74568
▁それで	-9.74666
タイトル	-9.74722
でかい	-9.74729
とりあえず	-9.74838
ピン	-9.74879
控え	-9.74901
くらいしか	-9.74982
してクレメンス	-9.75042
入った	-9.75066
っこ	-9.75075
ついた	-9.75102
みたいな感じ	-9.75109
で一番	-9.75138
りゃ	-9.75142
禁止	-9.75151
卒業	-9.75155
のある	-9.75279
住み	-9.75298
さすがに	-9.75352
▁わい	-9.75393
ッツ	-9.754
崎	-9.75407
ないのに	-9.75462
報	-9.75557
退	-9.75572
本人	-9.75578
残り	-9.75609
異	-9.75632
るのが	-9.75645
するの	-9.75726
防	-9.75758
効果	-9.75772
年の	-9.75778
23	-9.75792
▁ほんと	-9.75805
完全に	-9.75842
永	-9.75887
という事実	-9.75948
とく	-9.76012
自分が	-9.76047
続ける	-9.76055
リング	-9.7608
ちょ	-9.76117
と思ったら	-9.76147
ソフトバンク	-9.7615
が無い	-9.7618
会話	-9.76268
歩	-9.76271
リア	-9.76301
まん	-9.76345
▁ま	-9.76354
約	-9.76389
判断	-9.76389
知識	-9.76395
▁マジで	-9.76511
んと	-9.76583
でええ	-9.76609
何を	-9.76669
穴	-9.76702
歴史	-9.76783
ポケモン	-9.76818
おすすめ	-9.76822
ぽ	-9.76857
明らかに	-9.76864
最終	-9.76881
まともな	-9.76909
当たり前	-9.7694
人で	-9.7696
投手が	-9.76997
ヌ	-9.77022
雑魚	-9.7703
家族	-9.77042
▁はえ	-9.77145
70	-9.77157
とかで	-9.77163
はちょっと	-9.77184
遅い	-9.77193
実力	-9.77244
モノ	-9.77254
過ぎて	-9.77335
ネガ	-9.77364
デー	-9.77403
んやないか	-9.77403
イッチが	-9.77453
スーパー	-9.77491
だけやで	-9.77492
▁自分の	-9.77539
になると	-9.77548
元気	-9.7758
争い	-9.7768
機会	-9.77697
センス	-9.77699
大野	-9.77881
もあるし	-9.7792
オン	-9.77928
嫁	-9.77958
次の	-9.7804
日本一	-9.78067
打たれる	-9.78072
ベル	-9.78096
塚	-9.78151
当時	-9.78179
各	-9.78231
今永	-9.78246
▁他	-9.78269
異常	-9.78274
転	-9.78281
津	-9.78286
洗	-9.78288
傷	-9.7829
尻	-9.78294
犬	-9.78294
タイミング	-9.78295
始めた	-9.78364
焼き	-9.78425
やったんや	-9.78501
存在	-9.78543
芸人	-9.78624
は誰	-9.78743
▁もしかして	-9.7877
させた	-9.78772
まう	-9.78781
加藤	-9.78805
苦手	-9.78821
帰り	-9.78909
忘れた	-9.7891
胸	-9.78935
コメント	-9.78941
わかった	-9.78943
不調	-9.78946
ぱ	-9.78955
落ちた	-9.78979
スペ	-9.78993
きてる	-9.78998
高山	-9.79011
記事	-9.79018
ですよ	-9.79018
連勝	-9.79039
以外の	-9.79052
使ってる	-9.79119
ダル	-9.79152
▁そうか	-9.79165
入ってる	-9.792
久	-9.79227
なお	-9.79243
軍で	-9.7928
まだまだ	-9.79293
価値	-9.79346
ソン	-9.79416
住	-9.79439
るん	-9.79511
します	-9.79533
ええねん	-9.79541
問	-9.79542
県民	-9.79547
保	-9.79554
くなって	-9.79574
提案	-9.79581
ようになった	-9.7963
ひどい	-9.79631
今季	-9.79643
ないな	-9.79647
じゃあ	-9.79655
貯金	-9.79688
つき	-9.79694
似	-9.79715
▁明日は	-9.79732
▁糸井	-9.79762
▁しゃーない	-9.7979
だからな	-9.79858
ール	-9.79917
こん	-9.79947
▁たぶん	-9.79955
てくる	-9.79989
もええ	-9.79996
としたら	-9.80021
タン	-9.80036
▁これが	-9.8007
ガチで	-9.80077
あげる	-9.80157
社会人	-9.8016
▁大阪	-9.8018
Ａ	-9.80227
不思議	-9.8023
経済	-9.80234
荒木	-9.80249
DH	-9.80264
ける	-9.80374
合う	-9.80407
野間	-9.80427
短	-9.80461
なってる	-9.80466
▁東	-9.8054
キー	-9.80557
ビー	-9.80594
見ない	-9.80613
負けて	-9.80669
読んだ	-9.80697
？？？	-9.80714
怒	-9.80734
編	-9.80785
義	-9.80839
一生	-9.80852
ﾁ	-9.80867
よなあ	-9.80872
登録	-9.80884
やめーや	-9.80889
吉川	-9.80902
成長	-9.80919
17	-9.80971
のワイ	-9.81006
でええやろ	-9.81007
どころか	-9.81093
▁わかる	-9.81104
ィ	-9.81108
優	-9.81142
使った	-9.81145
理解	-9.81323
ランド	-9.81377
▁昔	-9.81391
手を	-9.81518
ｷ	-9.81541
ガバガバ	-9.81541
＋	-9.81541
反応	-9.81544
飛び	-9.81557
ート	-9.81622
んですか	-9.81637
延長	-9.81648
に行って	-9.81701
旅行	-9.81721
んなら	-9.81732
？(	-9.81741
ステ	-9.81812
まった	-9.81883
リアル	-9.81887
バンド	-9.81905
張り	-9.81983
増	-9.82001
▁せやね	-9.82006
試合で	-9.82023
利	-9.82027
▁ところで	-9.82131
百	-9.82188
ツイッター	-9.82203
確信	-9.82206
バック	-9.82209
メンバー	-9.82216
えた	-9.82365
西川	-9.82404
のように	-9.82441
見たことない	-9.82523
なんやろか	-9.82609
ええんちゃう	-9.82684
▁どこ	-9.82754
▁せめて	-9.82757
罪	-9.82867
完璧	-9.8287
‥	-9.8287
－	-9.8287
つい	-9.82879
ゼロ	-9.82924
▁それを	-9.82973
ファ	-9.82974
見てない	-9.82993
団	-9.83037
▁日ハム	-9.83055
まり	-9.83055
ロン	-9.83103
▁岡田	-9.83112
野村	-9.83128
海外	-9.83159
部屋	-9.83182
やる気	-9.83191
居る	-9.83206
取れ	-9.83262
ケン	-9.83303
中村	-9.83351
上がり	-9.83382
られん	-9.83453
しとった	-9.83467
寺	-9.8347
秒	-9.83541
ブラック	-9.83549
酷使	-9.83554
飲む	-9.83557
バス	-9.83559
生きて	-9.8357
▁大学	-9.83575
言ったら	-9.83612
に関しては	-9.83612
に対して	-9.83617
ブル	-9.83636
さっき	-9.8364
年前	-9.83641
発言	-9.83642
投げた	-9.83709
そっち	-9.83811
やったっけ	-9.83811
ないのか	-9.83848
プラ	-9.83876
見せ	-9.83899
減	-9.83963
薄	-9.83976
帰って	-9.84125
行ったら	-9.8413
桁	-9.8418
継投	-9.84193
ﾎ	-9.84213
未だに	-9.84218
九州	-9.84218
去年の	-9.84224
である	-9.84325
ランク	-9.84377
レン	-9.84404
っす	-9.84465
置いて	-9.84497
がおる	-9.84505
仲	-9.84566
るな	-9.84656
イチロー	-9.84669
ほう	-9.84688
300	-9.84703
メン	-9.84728
分からない	-9.84788
言うと	-9.84841
距離	-9.84872
メンタル	-9.84897
全盛期	-9.84897
スルー	-9.84958
なんやねん	-9.84962
ろや	-9.85008
言え	-9.8503
▁20	-9.85037
,	-9.85048
やろうな	-9.85052
タイム	-9.85147
ダン	-9.85314
もんな	-9.85366
スレ立て	-9.85387
ジー	-9.85413
変わって	-9.85417
おるんか	-9.85458
されてた	-9.85483
塩	-9.8552
▁本当に	-9.8555
おじさん	-9.85557
師	-9.85559
頑張れ	-9.85581
ラジオ	-9.85582
ペース	-9.85594
決勝	-9.85622
とは思う	-9.85695
変化球	-9.85734
やったで	-9.85766
同点	-9.85772
面白かった	-9.85793
さんに	-9.85819
ゆう	-9.85819
うちに	-9.85847
▁そ	-9.85875
人も	-9.85889
▁う	-9.85919
切って	-9.85983
あるわ	-9.8613
使え	-9.86134
▁昨日の	-9.86141
生まれ	-9.86187
聖	-9.86239
ソフト	-9.86271
ぷ	-9.86271
基準	-9.86273
送球	-9.8629
即	-9.86395
とらん	-9.864
浪	-9.86439
▁よし	-9.86537
なったら	-9.8659
▁いい	-9.86612
白崎	-9.86726
遅	-9.86731
松井	-9.86737
▁それでも	-9.86747
▁サ	-9.86765
内川	-9.86809
でした	-9.86826
字	-9.8683
もらえる	-9.86867
理論	-9.86945
妄想	-9.86966
年俸	-9.86966
冬	-9.86966
映像	-9.86969
vs	-9.86978
パッパ	-9.87037
連れて	-9.87064
▁アニメ	-9.87091
の中	-9.87099
獲	-9.87108
テン	-9.87111
オフ	-9.87124
ちょい	-9.87146
爆発	-9.87172
やす	-9.87214
後ろ	-9.87224
荒らし	-9.87229
太郎	-9.87231
察し	-9.87235
書いた	-9.87255
したけど	-9.87343
▁どう	-9.87371
ダイ	-9.87439
事を	-9.87448
北海道	-9.87467
追加	-9.87492
昼	-9.875
視	-9.87533
なくなって	-9.87549
フィ	-9.87554
とか言う	-9.87565
クラ	-9.87578
絶	-9.87592
具	-9.8763
けん	-9.87635
x	-9.87665
＆	-9.87665
現状	-9.87665
ﾆｯｺﾘ	-9.87665
自己	-9.87669
破壊	-9.87673
移動	-9.87673
だれ	-9.87682
遊び	-9.87687
ベスト	-9.87699
ワイら	-9.87749
がいない	-9.87756
もらう	-9.87778
ワイに	-9.87866
最初	-9.88046
実は	-9.88095
ch	-9.88231
150	-9.88236
士	-9.88239
０	-9.88265
算	-9.88346
はともかく	-9.8837
母	-9.88373
ぐう	-9.88393
います	-9.88455
順位	-9.88463
.1	-9.88597
って思う	-9.88605
科	-9.88624
奴ら	-9.88659
押し	-9.88679
付	-9.88698
もらった	-9.88709
レベルの	-9.88744
一年	-9.88745
やつが	-9.88756
シュ	-9.88786
吉	-9.88812
ション	-9.88877
最後	-9.88883
▁(*^○^*)	-9.88937
交	-9.88947
紙	-9.88984
骨	-9.89001
▁たまに	-9.89018
になり	-9.89062
試験	-9.89079
奪三振	-9.89087
どれ	-9.89164
差別	-9.89179
買い	-9.892
日本シリーズ	-9.89217
できて	-9.89251
▁プロ	-9.89279
残って	-9.89299
わからんけど	-9.89312
ソース	-9.8934
シン	-9.89352
▁守備	-9.89517
温	-9.89578
▁めっちゃ	-9.8961
るのに	-9.89694
誠也	-9.89699
息	-9.89709
倉	-9.8972
すべき	-9.89726
潰	-9.89769
船	-9.89786
札幌	-9.89788
ガンダム	-9.89798
さらに	-9.89806
だいぶ	-9.89808
▁イ	-9.89833
聞き	-9.89846
んわ	-9.89857
行動	-9.89861
したわ	-9.89885
飛	-9.89887
一気に	-9.89906
!!	-9.89977
してるんや	-9.8998
ドーム	-9.90017
週	-9.90026
食べる	-9.90039
▁それなら	-9.90068
よくわからん	-9.90073
思い出	-9.90099
やめた	-9.90103
勝ってる	-9.90149
▁ネット	-9.90149
我慢	-9.90227
類	-9.90232
戻	-9.90233
勘違い	-9.90236
▁ほな	-9.90266
スタ	-9.90327
ないやん	-9.90354
って言ってる	-9.90383
んよ	-9.90402
切る	-9.90421
ホークス	-9.90498
セーブ	-9.90513
に入る	-9.90522
起用	-9.90528
cm	-9.90544
性格	-9.90553
額	-9.90614
▁名前	-9.90636
帰	-9.90692
▁鈴木	-9.90756
ぶり	-9.90768
運動	-9.90777
▁普通	-9.90802
じゃないか	-9.90821
思ってる	-9.90827
甘	-9.90831
藤	-9.90837
気分	-9.90838
急に	-9.90844
やのに	-9.9085
選手は	-9.90908
気持ち悪い	-9.90925
キング	-9.91078
発表	-9.91081
岩	-9.91086
ないの	-9.91184
だったから	-9.91221
Twitter	-9.91237
背番号	-9.91239
暗黒	-9.91243
悪くない	-9.91257
京田	-9.91326
宮崎	-9.91327
民は	-9.91369
ッド	-9.91384
のとき	-9.91443
▁今まで	-9.91449
くれた	-9.91504
ほんとに	-9.91522
▁この前	-9.91646
知らんけど	-9.91657
勝てない	-9.91676
休	-9.91715
しね	-9.91728
前から	-9.91729
中学生	-9.91734
なさい	-9.9174
調	-9.91761
じゃないと	-9.91789
みたいやな	-9.91796
給	-9.91817
しょ	-9.91867
方がええ	-9.91934
寿司	-9.91939
腐	-9.91957
でええやん	-9.91958
面倒	-9.91977
黒田	-9.91989
やったんか	-9.92055
ばい	-9.92085
京都	-9.92101
なんでも	-9.92122
おう	-9.92136
▁ほーん	-9.9216
たのに	-9.92215
陰キャ	-9.9225
んよな	-9.92286
どうにか	-9.92318
ッチ	-9.92328
たんか	-9.92331
無視	-9.92354
▁ふ	-9.92389
以外に	-9.92411
満塁	-9.92421
▁結構	-9.92466
最高や	-9.92473
新井	-9.92484
言いたい	-9.92491
検索	-9.92521
▁二	-9.92575
剣	-9.92682
狙い	-9.92702
キャンプ	-9.92712
地域	-9.92716
片	-9.92807
するで	-9.92815
トイレ	-9.92843
▁カ	-9.92851
するか	-9.92852
大丈夫か	-9.92853
めた	-9.92872
頼むで	-9.92888
▁おう	-9.92889
オープン戦	-9.92896
やらん	-9.92899
ですわね	-9.92912
一度	-9.92956
大学生	-9.9296
抜き	-9.92984
素人	-9.9299
悪く	-9.9304
仕方ない	-9.93104
増えた	-9.9314
分け	-9.93141
オー	-9.93211
00	-9.93231
高校生	-9.93287
眠	-9.93343
筋	-9.93351
ｶ	-9.93443
警察	-9.93445
自然	-9.93463
ナー	-9.93466
路線	-9.93469
ww	-9.93493
代走	-9.93503
東北	-9.93535
▁特に	-9.93542
謝れ	-9.93572
22	-9.93576
やからね	-9.93589
ェ	-9.93635
サイ	-9.93657
無理や	-9.93667
毎年	-9.93672
ったり	-9.93673
ドル	-9.9374
を見て	-9.93763
不足	-9.93779
▁大松	-9.93795
なかったっけ	-9.93847
たかった	-9.93861
ドン	-9.9393
▁よっしゃ	-9.94104
もらって	-9.94112
に行った	-9.94133
▁秋山	-9.94171
んのや	-9.94176
室	-9.94182
完投	-9.94193
キッズ	-9.94199
時代の	-9.94208
スタイル	-9.94217
一本	-9.94233
小さい	-9.94233
待って	-9.94251
誰や	-9.94259
いか	-9.94269
最後に	-9.94358
になっとる	-9.94425
きっと	-9.94443
名古屋	-9.94448
じゃなかった	-9.94448
なので	-9.94459
くらいで	-9.94476
まえ	-9.94477
残念	-9.94485
むしろ	-9.9454
地球	-9.94611
１０	-9.94693
目的	-9.947
起こ	-9.9471
かなあ	-9.94716
狂	-9.94719
かつ	-9.94773
に期待	-9.94838
が出る	-9.94841
段	-9.94898
▁倉本	-9.94932
z	-9.94941
満足	-9.94942
○○	-9.94954
km	-9.94974
文化	-9.95004
ぶっ	-9.95015
良くない	-9.95021
他に	-9.95036
どうせ	-9.95043
ヤツ	-9.95046
るやつ	-9.95083
ってことか	-9.95083
ボケ	-9.95094
帯	-9.95119
全国	-9.95121
遅れ	-9.95122
んじゃね	-9.95126
甘い	-9.95173
ッシュ	-9.95254
壊	-9.95294
しないと	-9.95295
原作	-9.95353
21	-9.95361
国民	-9.954
トラ	-9.9548
んじゃない	-9.95481
チームの	-9.95502
さら	-9.95513
適当に	-9.95516
料	-9.95529
選	-9.95573
確かに	-9.95581
▁右	-9.95589
魔	-9.95592
盛	-9.95596
ないンゴ	-9.95657
軽	-9.95682
偏差値	-9.95697
☆	-9.95699
値段	-9.95702
っち	-9.95738
セット	-9.95746
対戦	-9.95768
伝	-9.95773
なんかな	-9.95787
越え	-9.95826
コース	-9.9596
▁そんなに	-9.96013
返し	-9.96032
少	-9.9609
(*^◯^*)	-9.96094
末	-9.96101
上げる	-9.96106
だけでも	-9.96159
▁De	-9.9616
ればいい	-9.96171
原口	-9.96174
って言って	-9.96204
とけ	-9.96314
公式	-9.96338
作者	-9.96352
出せ	-9.96381
久保	-9.96405
▁12	-9.9641
やと思うで	-9.96419
修	-9.96426
くなってきた	-9.96428
弟	-9.96459
銃	-9.9646
Ｂ	-9.96462
ｸ	-9.96462
筋肉	-9.96465
計算	-9.96466
離脱	-9.96467
無双	-9.9647
決まった	-9.96487
反対	-9.96488
まし	-9.96502
スライダー	-9.96504
しすぎ	-9.9652
トロ	-9.96561
いくつ	-9.96574
どうしても	-9.96594
と言う	-9.96657
エン	-9.9666
んかね	-9.96667
成功	-9.96686
あります	-9.96716
アル	-9.96732
流石に	-9.96793
持	-9.9689
茶	-9.96896
福岡	-9.96901
高橋	-9.96915
大きい	-9.9693
辛	-9.96937
別の	-9.96962
思い出した	-9.97002
ジョ	-9.97025
サイド	-9.97057
あるん	-9.97083
るやん	-9.97089
味方	-9.97109
出てた	-9.97111
になれ	-9.97131
ヤク	-9.97148
せや	-9.97161
人口	-9.97186
受験	-9.97201
てきた	-9.97205
洋	-9.97215
とって	-9.97216
触	-9.97224
ストーリー	-9.97231
しかおらん	-9.97233
系の	-9.97269
アプリ	-9.97302
あるか	-9.97311
人数	-9.97363
45	-9.97371
飲んで	-9.97516
の違い	-9.97548
否定	-9.97567
言われた	-9.9757
▁サード	-9.97576
回まで	-9.97577
▁メジャー	-9.97622
焼	-9.97665
だね	-9.9767
やっと	-9.97697
わざわざ	-9.97703
ロペス	-9.97705
貼って	-9.97707
の事	-9.97714
ハマスタ	-9.97719
話し	-9.97726
出番	-9.97732
▁ス	-9.97754
関東	-9.97828
中の	-9.97854
頼	-9.97889
迷	-9.97961
週間	-9.97973
羽	-9.97976
棒	-9.97985
巨人ファン	-9.97987
癖	-9.97987
Z	-9.98007
授業	-9.98007
ということ	-9.98013
くれや	-9.98065
カーブ	-9.98071
ご飯	-9.98077
闇	-9.98113
絶望	-9.98134
ライブ	-9.98151
やってない	-9.98169
せば	-9.98174
どれくらい	-9.98195
二軍で	-9.98205
▁大野	-9.98258
全体	-9.98272
ロマン	-9.9838
東大	-9.98386
かり	-9.98409
その辺	-9.98412
5000	-9.98423
▁そこ	-9.98439
付き	-9.98455
は別	-9.98474
▁少なくとも	-9.98514
替え	-9.98536
積	-9.9855
一般	-9.98552
せて	-9.98607
麻	-9.98617
友	-9.9866
▁センター	-9.98678
のチーム	-9.98681
↑	-9.98788
耳	-9.98788
バレンティン	-9.98789
良さそう	-9.98793
アニ豚	-9.98794
ーい	-9.98842
どうする	-9.98844
るんやろ	-9.98866
プリ	-9.98925
よろしく	-9.98954
▁彡	-9.98959
▁いうて	-9.9898
長打	-9.99029
応援歌	-9.99042
檻	-9.99078
▁鳥谷	-9.99241
して欲しい	-9.99264
来ない	-9.99274
要	-9.9928
行か	-9.99292
だからね	-9.99391
▁水	-9.99403
変える	-9.99424
続	-9.99442
無理やろ	-9.99453
だか	-9.99551
参考	-9.99565
牛	-9.99573
％	-9.99575
神奈川	-9.99576
君は	-9.99579
安定	-9.99581
必ず	-9.99585
の時は	-9.99614
嫌な	-9.99626
でしょう	-9.99649
調べたら	-9.99669
の精神	-9.99696
みる	-9.99714
レイ	-9.99774
♡	-9.99778
すごく	-9.99789
愛知	-9.99799
ドラマ	-9.99885
回転	-9.9989
ブレ	-9.99896
選手の	-9.999
きたら	-9.99901
まじ	-9.99911
らしいし	-9.99963
新人	-10
すでに	-10.0019
プロ野球	-10.0023
香	-10.0024
決	-10.0025
思って	-10.0027
日本語	-10.003
流行	-10.0033
ジュ	-10.0035
こんな感じ	-10.0036
症	-10.0036
NPB	-10.0037
深夜	-10.0038
セリーグ	-10.0039
実質	-10.004
先制	-10.004
見せて	-10.0041
▁絶対	-10.005
PC	-10.005
チョ	-10.0056
目の	-10.0057
中谷	-10.0058
んですかねぇ	-10.0066
わけや	-10.0069
荒れ	-10.007
製	-10.0083
ホント	-10.0085
ないよな	-10.009
*	-10.0091
嶋	-10.0094
に見える	-10.0094
たで	-10.0103
だめ	-10.0107
かしら	-10.0107
終	-10.011
真面目に	-10.0112
列	-10.0115
図	-10.0116
さない	-10.0116
袋	-10.0117
六	-10.0117
タバコ	-10.0117
かったわ	-10.0119
小学生	-10.0135
まともに	-10.0139
しく	-10.0144
と一緒に	-10.0151
わりと	-10.0151
多少	-10.0153
目に	-10.0156
ってどんな	-10.0157
好きやで	-10.0167
んだっけ	-10.0175
%	-10.0188
かわからん	-10.0188
投球	-10.0189
林	-10.0189
ユ	-10.019
豊	-10.0191
in	-10.0193
動か	-10.0193
▁村田	-10.0193
恋	-10.0194
▁こんなん	-10.0195
夫	-10.0197
侍	-10.0197
イベント	-10.0197
さっさと	-10.0198
トッモ	-10.0198
緒方	-10.0198
給料	-10.0198
辺	-10.0198
当たる	-10.0198
新聞	-10.0198
▁怪我	-10.0204
ろよ	-10.0208
できそう	-10.0214
連中	-10.0215
戦力外	-10.0218
間違い	-10.0219
してきた	-10.0221
出てきて	-10.0222
飛んで	-10.0223
大和	-10.0227
まくって	-10.0238
ればええ	-10.0238
レー	-10.0239
意味ない	-10.024
▁どっちも	-10.0243
んかった	-10.0243
▁何か	-10.0244
熱い	-10.0246
ゥ	-10.0248
上で	-10.0249
本気	-10.0255
の意味	-10.0256
▁仕事	-10.026
児	-10.0275
がね	-10.0276
▁高校	-10.0277
皮	-10.0278
球数	-10.0279
バランス	-10.0279
助っ人	-10.0279
触れ	-10.0279
理想	-10.0279
アイドル	-10.028
任	-10.0283
柳田	-10.0284
▁ひ	-10.0284
せやな	-10.0284
田島	-10.0289
▁うちの	-10.0291
無く	-10.031
フリー	-10.0314
それでも	-10.0319
能	-10.0324
無駄	-10.0325
はよ	-10.0325
バル	-10.0335
三塁	-10.0336
があれば	-10.0338
なよ	-10.0346
ッと	-10.0346
最低	-10.0347
▁B	-10.0349
見てた	-10.0355
厨	-10.0361
鼻	-10.0361
いてる	-10.0361
連投	-10.0362
前半	-10.0368
大瀬良	-10.037
福留	-10.037
出てない	-10.0371
かける	-10.0375
送	-10.0376
売	-10.0376
▁嘘	-10.0393
っとった	-10.0399
戦闘	-10.0401
なぜか	-10.0402
んですがそれは	-10.0403
見た目	-10.0405
▁投手	-10.0415
になれる	-10.042
もあった	-10.0423
竹	-10.0433
秋	-10.0437
すぎた	-10.0439
ドイツ	-10.0442
輪	-10.0443
歯	-10.0443
どころ	-10.0443
横綱	-10.0443
日の	-10.0443
研究	-10.0443
卵	-10.0443
MVP	-10.0443
以来	-10.0444
決定	-10.0445
んじゃないか	-10.0445
だけなら	-10.0447
▁２	-10.0448
一切	-10.0455
一緒	-10.0455
両方	-10.0456
オタク	-10.0457
コンビニ	-10.0458
このまま	-10.0458
▁ハ	-10.0459
は結構	-10.0471
ければ	-10.0473
意味で	-10.0475
されたら	-10.0478
フェ	-10.0481
見てて	-10.0483
▁無	-10.0484
刺	-10.0484
じゃなく	-10.0486
途中	-10.049
理系	-10.049
どんな感じ	-10.049
▁中国	-10.0498
羨ましい	-10.0505
▁31	-10.0505
細	-10.0505
捨て	-10.0517
無事	-10.0517
風呂	-10.0517
一部	-10.0518
はいつ	-10.0522
党	-10.0523
投手は	-10.0524
院	-10.0526
霊	-10.0527
証拠	-10.0527
拒否	-10.0527
埼玉	-10.0527
知り合い	-10.0527
江越	-10.0528
対策	-10.0528
獲得	-10.0528
新人王	-10.0528
達成	-10.0529
通算	-10.0529
大卒	-10.0531
ルー	-10.0532
終盤	-10.0536
投手陣	-10.0536
学歴	-10.054
改	-10.0543
国立	-10.0544
▁最近の	-10.0545
相手の	-10.0547
トランプ	-10.0548
もしかして	-10.0551
よくない	-10.0557
身体	-10.0559
いかんでしょ	-10.0563
♥	-10.0568
大事	-10.0576
人を	-10.0579
以上に	-10.0581
行こう	-10.0582
しなぁ	-10.0592
確実に	-10.0603
▁頭	-10.0604
おかわり	-10.0604
際	-10.0604
念	-10.0609
の子	-10.0611
システム	-10.0611
岩貞	-10.0611
バトル	-10.0611
チケット	-10.0611
マイナー	-10.0611
学部	-10.0612
上司	-10.0614
も同じ	-10.0615
26	-10.0616
あなた	-10.0617
隣	-10.062
ケガ	-10.0625
SB	-10.063
複数	-10.0634
さんと	-10.0635
ている	-10.0638
動き	-10.0638
▁G	-10.0647
どうや	-10.065
今宮	-10.0651
ますよ	-10.0654
ったわ	-10.0654
▁親	-10.0654
▁何が	-10.0655
怖	-10.0658
？（	-10.0667
叩かれる	-10.0667
アリ	-10.0668
舞	-10.0672
旅	-10.0672
▁自分	-10.0674
▁ほんまに	-10.0677
速い	-10.0678
▁ヒ	-10.0683
誰でも	-10.0684
範囲	-10.0688
収	-10.0688
▁やきう	-10.0689
盗	-10.0695
布	-10.0695
Ｓ	-10.0695
打たれた	-10.0695
鬱	-10.0696
ギリギリ	-10.0696
だらけ	-10.0696
才能	-10.0696
そんな感じ	-10.0696
大体	-10.0696
▁実は	-10.0697
興味	-10.07
だけの	-10.0702
▁鷹	-10.0704
左腕	-10.0704
ってくれ	-10.0705
巨	-10.0709
番に	-10.0711
さが	-10.0715
▁WBC	-10.0715
…（	-10.0723
になるから	-10.0726
謎の	-10.0732
もよう	-10.0735
▁顔	-10.0749
ナン	-10.0753
してて草	-10.0762
おっ	-10.0765
突	-10.077
清	-10.0772
苦	-10.0772
もらえ	-10.0773
葉	-10.0776
選択	-10.0781
対応	-10.0782
都会	-10.0783
店員	-10.0784
平野	-10.0787
したの	-10.0791
▁S	-10.0792
されとる	-10.0795
▁長野	-10.0795
自体は	-10.0796
ロマック	-10.0797
▁ほ	-10.0801
欲	-10.0801
大田	-10.0803
▁サッカー	-10.0806
▁日本の	-10.081
みたいなもん	-10.0814
どー	-10.0816
広い	-10.0823
下げ	-10.0825
しとるんや	-10.0826
松山	-10.0826
にならない	-10.0829
奥	-10.0833
コテ	-10.0835
知って	-10.084
食べて	-10.0844
多かった	-10.0848
▁全部	-10.0848
然	-10.0849
聞きたい	-10.0853
銀	-10.0859
消える	-10.0859
滅	-10.086
33	-10.0862
常	-10.0863
澤	-10.0865
雑	-10.0866
宣言	-10.0868
美味しい	-10.0868
高みの見物	-10.0869
スタンド	-10.0875
寄	-10.0878
巨人の	-10.0894
違和感	-10.0895
平気	-10.0903
BS	-10.0905
そんなん	-10.0905
▁同じ	-10.0907
まい	-10.091
第	-10.0912
工藤	-10.0912
茂木	-10.0913
ピー	-10.0913
▁平田	-10.0913
ポン	-10.0914
解決	-10.0921
がい	-10.0922
すぎィ	-10.0927
方がいい	-10.0928
詰め	-10.093
▁ちゃんと	-10.093
えない	-10.0933
ジェ	-10.0935
ってない	-10.0935
かぁ	-10.0938
上がった	-10.094
▁黒田	-10.0946
専門	-10.0946
楽しみや	-10.0952
瞬間	-10.0952
いらない	-10.0953
初心者	-10.0954
フランス	-10.0954
交換	-10.0955
投票	-10.0955
打順	-10.0955
正しい	-10.0959
になってた	-10.0964
恥ずかしい	-10.097
地元	-10.0973
まれ	-10.0974
▁それも	-10.0974
そんなこと	-10.0977
あったけど	-10.0981
そうやね	-10.0986
キン	-10.0988
年に	-10.0998
やからなぁ	-10.1009
起き	-10.101
▁これから	-10.101
▁阿部	-10.1013
なこと	-10.1014
▁セカンド	-10.1015
スレで	-10.1017
▁去年は	-10.1019
ホンマに	-10.1021
ジョンソン	-10.1027
っぽ	-10.1031
装	-10.1036
！(	-10.1037
は知らん	-10.1039
混	-10.1039
ランキング	-10.104
里	-10.1041
紹介	-10.1042
キツイ	-10.1043
するのが	-10.1043
うちの	-10.1046
神戸	-10.1047
都市	-10.1052
デス	-10.1058
ゥー	-10.1067
本気で	-10.1078
超え	-10.1081
人と	-10.1087
など	-10.1091
ですかね	-10.1091
いわ	-10.1092
言われて	-10.1095
都	-10.1098
にゃ	-10.1099
沖縄	-10.11
梶谷	-10.11
マイ	-10.1104
順	-10.1109
んやったら	-10.1111
っか	-10.1119
ミー	-10.1122
らへん	-10.1125
在	-10.1125
Q	-10.1126
竜	-10.113
フロント	-10.113
ゆっくり	-10.1131
してくる	-10.1131
借金	-10.1131
連絡	-10.1131
楽しかった	-10.1131
天才	-10.1131
相談	-10.1131
相性	-10.1136
多少はね	-10.1137
プラス	-10.1141
にしよう	-10.1143
病気	-10.1144
▁高山	-10.1145
これが	-10.1148
どうなるか	-10.1151
だろうし	-10.1159
ってやつ	-10.1164
教えてくれ	-10.1165
だけに	-10.1166
原因	-10.1167
って誰	-10.1178
今でも	-10.1185
変えて	-10.1186
活	-10.1189
かけた	-10.1193
立って	-10.1196
ネットで	-10.1198
.0	-10.12
限定	-10.12
者が	-10.12
▁今日も	-10.1203
のみ	-10.1203
▁おお	-10.1213
▁京田	-10.1213
現地	-10.1215
▁神	-10.1218
豪	-10.1218
宝	-10.1219
&	-10.122
贅沢	-10.122
鳴	-10.122
条件	-10.122
更新	-10.122
落とす	-10.1221
諦め	-10.1224
首位	-10.1232
▁F	-10.1233
やでー	-10.1239
多く	-10.1239
投げてる	-10.124
ってマジ	-10.1241
ましょう	-10.1244
というより	-10.1251
中身	-10.1252
▁最近は	-10.1255
んでる	-10.1257
一人で	-10.1262
育	-10.1262
▁ゲーム	-10.1262
始めて	-10.1263
さい	-10.1265
宇宙	-10.1266
ブリ	-10.1269
選手を	-10.1269
ってくる	-10.1279
にわか	-10.128
▁いつ	-10.1287
もうちょっと	-10.1293
千葉	-10.1295
武田	-10.1297
ロシア	-10.1301
他球団	-10.1304
▁来年	-10.1305
飛ば	-10.1306
亀	-10.1307
簡単	-10.1308
Ｃ	-10.1309
健	-10.1309
龍	-10.131
危険	-10.131
ミサイル	-10.131
現在	-10.1311
小笠原	-10.1312
離	-10.1313
酷	-10.1318
動物	-10.1319
▁お前は	-10.1319
ないと思う	-10.132
したろ	-10.1322
重要	-10.1329
いき	-10.1333
いいと思う	-10.1342
探	-10.1352
▁交流戦	-10.1356
関西	-10.1358
▁今から	-10.1368
増え	-10.1369
吹	-10.1369
ょ	-10.1369
なんも	-10.1378
ネトウヨ	-10.1387
幸	-10.1387
桑原	-10.1388
どっちか	-10.1389
戸	-10.1389
移	-10.139
▁四球	-10.1391
吉田	-10.1392
端	-10.1395
･	-10.1396
容	-10.1398
▁安価	-10.1399
地獄	-10.1401
に出	-10.1401
崩壊	-10.1401
完成	-10.1401
証明	-10.1402
待ち	-10.1403
メール	-10.1404
今村	-10.1407
クラブ	-10.1407
相手が	-10.1407
嫌いな	-10.1409
と言って	-10.141
なんやろな	-10.1413
向き	-10.1414
▁A	-10.1414
▁加藤	-10.142
▁おい	-10.1422
たく	-10.1424
ゴー	-10.1427
27	-10.1427
接	-10.143
▁100	-10.143
▁朝	-10.143
途中で	-10.1431
ウェ	-10.1433
思ってた	-10.1435
▁うち	-10.1436
戦で	-10.144
面白そう	-10.1441
▁皆	-10.1441
っぱ	-10.1444
る奴	-10.1444
どうして	-10.1445
にしろ	-10.1445
かなんか	-10.1448
▁ショート	-10.1448
入れた	-10.145
今日も	-10.1452
推	-10.1455
しようや	-10.1459
あい	-10.1465
くんは	-10.1465
優しい	-10.1467
っとらん	-10.1469
期間	-10.147
降	-10.1472
時から	-10.1474
▁俺	-10.1475
せんと	-10.1477
上の	-10.1477
▁中継ぎ	-10.1478
済	-10.1481
閉	-10.149
精	-10.149
衛	-10.1492
州	-10.1492
"	-10.1492
智	-10.1492
腰	-10.1492
公務員	-10.1492
認識	-10.1492
しばらく	-10.1492
就活	-10.1493
営業	-10.1493
ヒーロー	-10.1493
野菜	-10.1494
▁緒方	-10.1495
落ちて	-10.1497
ようと	-10.1498
であって	-10.1499
山崎	-10.1499
スコア	-10.1499
掛け	-10.1501
大分	-10.1502
って意味	-10.1508
タテ	-10.1508
OK	-10.1528
深	-10.1534
ちゃうの	-10.1538
▁私	-10.1542
が出て	-10.155
建て	-10.1551
ウィ	-10.1554
かっこ	-10.1559
ペン	-10.1563
っている	-10.1563
強く	-10.1567
汚	-10.1568
見たけど	-10.1569
イライラ	-10.157
▁あんな	-10.1571
欲しいわ	-10.1574
作戦	-10.1574
悲	-10.1574
いじ	-10.1575
引	-10.1577
があるんや	-10.1578
んやし	-10.158
位置	-10.1583
伸び	-10.1584
妹	-10.1585
序盤	-10.1585
ボロボロ	-10.1585
注意	-10.1586
VIP	-10.1586
議論	-10.1586
疲れ	-10.1587
▁確か	-10.1587
間違いなく	-10.1589
自身	-10.159
▁誠也	-10.1592
呼んで	-10.1596
ようになる	-10.1604
返す	-10.1604
▁誰	-10.1607
進化	-10.1608
までに	-10.161
くり	-10.1611
大量	-10.1613
ますね	-10.1615
年代	-10.1616
と思ったけど	-10.1618
以外で	-10.1621
つけた	-10.1622
▁もちろん	-10.1622
あっ	-10.1627
民の	-10.163
増や	-10.1631
管理	-10.1633
クレ	-10.164
崩	-10.1651
将来	-10.1651
▁西	-10.1654
卒	-10.1655
コメ	-10.1659
辞め	-10.166
落として	-10.1661
v	-10.167
主義	-10.1675
ザー	-10.1676
カラ	-10.1677
凡	-10.1678
どんどん	-10.1679
実績	-10.1679
前提	-10.1679
小並感	-10.168
生え抜き	-10.168
フラ	-10.1681
それなりに	-10.1682
ーズ	-10.1682
▁丸	-10.1683
働く	-10.1686
ラミレス	-10.1686
▁大田	-10.1686
パワプロ	-10.1686
こいつら	-10.169
帰る	-10.1691
基本的に	-10.1693
安部	-10.1694
TV	-10.1698
続け	-10.1704
いつか	-10.1706
欲しかった	-10.171
▁自分で	-10.1712
残ってる	-10.1714
のまま	-10.1721
驚	-10.1721
来たら	-10.1723
にしたら	-10.1726
救	-10.1728
▁ポ	-10.1729
将	-10.173
でやる	-10.1734
あっても	-10.1736
▁好きな	-10.174
知った	-10.1742
記	-10.1744
置	-10.1746
▁トランプ	-10.1749
んですけど	-10.1749
向	-10.175
ニキは	-10.1756
してから	-10.1758
普段	-10.1761
園	-10.1764
アナ	-10.1766
頑張る	-10.1768
養	-10.1771
●	-10.1772
箱	-10.1772
活動	-10.1772
也	-10.1772
ﾋ	-10.1773
すべて	-10.1773
準備	-10.1773
栗山	-10.1774
感謝	-10.1775
自演	-10.1775
ピンチ	-10.1776
何とか	-10.1777
ってきた	-10.1779
)「	-10.178
がええ	-10.1781
▁あぁ	-10.1782
北條	-10.1782
おらんの	-10.1783
「」	-10.1784
消えた	-10.1786
福井	-10.1787
▁女	-10.1789
うんち	-10.1791
気味	-10.1793
らず	-10.1802
隠	-10.1803
▁そこまで	-10.1806
中島	-10.1811
影	-10.1812
今度	-10.1813
されない	-10.1814
んど	-10.1814
まくる	-10.1817
ンゴね	-10.1817
年で	-10.1822
なのが	-10.1825
陰	-10.1831
負	-10.1834
▁はよ	-10.1837
足り	-10.184
いいのか	-10.1846
迫	-10.1849
わけないやろ	-10.1854
当て	-10.1855
くらいは	-10.1855
熊	-10.1855
ホー	-10.1856
は今	-10.186
欠	-10.1862
局	-10.1865
上手	-10.1865
証	-10.1866
自慢	-10.1866
兄	-10.1867
奇	-10.1868
照	-10.1868
ビジター	-10.1868
日シリ	-10.1868
いろんな	-10.1868
35	-10.1868
下位	-10.1869
藤井	-10.187
くらいなら	-10.187
メイン	-10.1872
後の	-10.1878
ソー	-10.1878
懐かしい	-10.188
クル	-10.1884
金持ち	-10.1889
その後	-10.189
神宮	-10.1893
といえば	-10.1903
▁M	-10.1909
AI	-10.1911
頭おかしい	-10.1915
増える	-10.1917
▁則本	-10.1922
言わん	-10.1926
んやろうけど	-10.1935
問題ない	-10.1938
周	-10.1939
開発	-10.195
華	-10.1954
便	-10.1954
戦車	-10.1961
影響	-10.1962
逸	-10.1964
スピード	-10.1964
助	-10.1965
武器	-10.1965
表現	-10.1966
▁割と	-10.1974
じゃないの	-10.1975
続き	-10.1976
ほんとすこ	-10.1979
言っても	-10.1986
だろうが	-10.199
に入って	-10.199
▁そんなこと	-10.1992
ニア	-10.1997
使わ	-10.1997
はなんで	-10.1999
コレ	-10.2
描いて	-10.2002
呼ばれ	-10.2002
万円	-10.2005
の中に	-10.201
パリーグ	-10.2012
が少ない	-10.2017
の奴	-10.2022
ますか	-10.2024
もうちょい	-10.203
打たれて	-10.2033
本家	-10.2037
比	-10.2041
こんなもん	-10.2046
待	-10.205
ええのに	-10.205
▁あいつ	-10.2053
なんなん	-10.2056
の頃	-10.2058
談	-10.206
開始	-10.2062
無料	-10.2065
変化	-10.2068
行かない	-10.2074
泣く	-10.2078
好み	-10.2078
せいで	-10.2085
ドリス	-10.2086
寒い	-10.2087
ビシエド	-10.2096
活躍して	-10.2098
ソロ	-10.2098
ならん	-10.2106
せい	-10.211
ことはない	-10.2111
しらん	-10.2112
が欲しい	-10.2116
００	-10.2118
るからな	-10.2118
えー	-10.2122
過ぎる	-10.2125
いくらでも	-10.2129
第一	-10.2131
でもええ	-10.2137
してんの	-10.2142
間違えた	-10.2144
になるんや	-10.215
のう	-10.2151
浜	-10.2153
er	-10.2153
隊	-10.2154
案	-10.2154
源	-10.2155
告	-10.2156
代わりに	-10.2157
礼	-10.2158
ラノベ	-10.2159
ゴメス	-10.2159
相撲	-10.2159
ものを	-10.216
意外と	-10.2166
▁シーズン	-10.2168
何故か	-10.2173
と思ってた	-10.2175
そうだ	-10.2175
金本	-10.2178
続く	-10.2178
守れる	-10.2182
感ある	-10.2189
たぶん	-10.2196
松坂	-10.2203
小野	-10.2203
あったな	-10.2203
家に	-10.2207
ひと	-10.2214
常に	-10.2217
有名な	-10.2218
▁お前が	-10.2219
残る	-10.2221
盛り	-10.2227
目が	-10.2228
いけそう	-10.2228
)」	-10.2228
どうでもええ	-10.2237
サブ	-10.2241
▁あそこ	-10.2244
父	-10.225
▁ミ	-10.2252
＾	-10.2252
いで	-10.2252
館	-10.2253
の時に	-10.2254
誤	-10.2256
カツ	-10.2256
出塁	-10.2257
造	-10.2257
核	-10.2258
サービス	-10.2258
なんとなく	-10.2259
須田	-10.226
信じ	-10.2261
モンスター	-10.2261
ファンの	-10.2262
作れ	-10.2264
福田	-10.2265
続けて	-10.2269
熊本	-10.227
わかって	-10.2272
▁ここは	-10.2273
起	-10.2275
▁このまま	-10.2275
まくった	-10.2275
▁森	-10.2279
▁さすが	-10.228
▁相手	-10.2282
日本に	-10.2282
らしいけど	-10.2282
▁３	-10.2284
東方	-10.2284
帰れ	-10.2286
そこに	-10.2288
パラ	-10.2292
ええよな	-10.2292
終わったら	-10.2302
始め	-10.2303
▁オ	-10.2303
千賀	-10.2307
明け	-10.2311
慣れ	-10.2312
▁酒	-10.2313
▁後	-10.2315
ないんだよなぁ	-10.2317
▁エ	-10.2321
らせ	-10.2324
▁元々	-10.2325
決める	-10.2326
リス	-10.2332
大事な	-10.2332
んだな	-10.2337
▁11	-10.2338
河	-10.2339
▁スマホ	-10.2341
今後	-10.2347
負けてる	-10.2348
勝率	-10.2352
固	-10.2352
砂	-10.2353
雄	-10.2355
なんだよ	-10.2357
は絶対	-10.2357
旧	-10.2358
投稿	-10.2358
株	-10.2358
すっとぼけ	-10.2358
刀	-10.2358
マイナス	-10.2359
サークル	-10.2359
グループ	-10.2359
限界	-10.2359
入団	-10.236
都合	-10.2361
りする	-10.2361
カメラ	-10.2364
あれは	-10.2364
▁？？「	-10.2365
不満	-10.2367
イー	-10.2369
出来ん	-10.2371
進行	-10.2373
岡本	-10.2376
詳しく	-10.238
強すぎ	-10.2383
まくり	-10.2385
一日	-10.2387
しなかった	-10.2387
▁はぇ	-10.2388
ところに	-10.239
さぁ	-10.2391
知っとる	-10.2392
最後まで	-10.2393
おお	-10.2395
-2	-10.24
ってなる	-10.2401
かったら	-10.2401
ちょうど	-10.2402
いってる	-10.2404
ーん	-10.2409
九里	-10.2415
▁山口	-10.2415
こんなん	-10.2416
▁白	-10.2419
一位	-10.242
▁名古屋	-10.2424
いけば	-10.2425
やってくれ	-10.2425
ナイ	-10.2429
▁それに	-10.2429
寒	-10.2433
イチ	-10.2434
出たら	-10.2434
ってなんで	-10.244
目を	-10.2446
受	-10.2447
！！！！	-10.2449
▁ラミレス	-10.2451
哲学	-10.2452
貴	-10.2452
たのは	-10.2453
大島	-10.2454
▁日本人	-10.2454
見ても	-10.2454
人間が	-10.2457
純	-10.2457
メリット	-10.2458
ｼ	-10.2459
栄	-10.2459
響	-10.2459
底	-10.2459
アピール	-10.2459
>	-10.2459
貸	-10.2459
マウンド	-10.2459
ニコニコ	-10.2459
免許	-10.2459
疑問	-10.246
ッタ	-10.246
呼び	-10.246
教師	-10.246
の差	-10.246
梅野	-10.2461
ボタン	-10.2463
医者	-10.2465
バスケ	-10.2466
調べて	-10.2468
なくて草	-10.247
守備が	-10.2471
どうした	-10.2472
ぶち	-10.2472
少年	-10.2473
ダメです	-10.2477
年後	-10.2477
すげえ	-10.2477
スレタイ	-10.248
東海	-10.248
得意	-10.248
最初から	-10.2481
の一	-10.2481
ティー	-10.2484
▁こっち	-10.2489
まずい	-10.2491
優先	-10.2492
れそう	-10.2493
つかん	-10.2501
▁荒木	-10.2501
用意	-10.2503
▁福岡	-10.2505
を感じる	-10.2505
国家	-10.2509
したん	-10.2509
していた	-10.2511
はずや	-10.2512
大丈夫やろ	-10.2513
▁他に	-10.2514
喜	-10.2516
ための	-10.2516
はもっと	-10.2517
レッド	-10.2518
▁どっち	-10.2522
マッマ	-10.2522
なんやから	-10.2529
しかいない	-10.2529
背	-10.2529
家の	-10.2537
今シーズン	-10.2541
▁イチロー	-10.2541
爆	-10.2542
務	-10.2545
地味	-10.2556
劇	-10.2559
▁松田	-10.256
善	-10.2561
の国	-10.2561
票	-10.2561
『	-10.2561
知名度	-10.2561
涌井	-10.2561
云々	-10.2561
凡退	-10.2562
ホテル	-10.2562
糸原	-10.2562
引き分け	-10.2563
ﾁﾁ	-10.2563
信用	-10.2565
チュ	-10.257
怪しい	-10.257
楽しそう	-10.2573
されそう	-10.2575
スタート	-10.2578
▁友達	-10.2579
してるし	-10.258
▁一回	-10.2581
▁北	-10.2581
▁代打	-10.2582
にしか	-10.2583
れや	-10.2583
喋	-10.2584
仲良く	-10.2585
田村	-10.2585
んやけどなぁ	-10.2587
▁上	-10.259
はかなり	-10.2594
スタン	-10.2595
ええなぁ	-10.2595
大山	-10.2596
するんか	-10.26
▁ジョンソン	-10.2602
笑い	-10.2602
ええんやない	-10.2602
どこが	-10.2604
かいな	-10.2605
遠い	-10.2605
はアカン	-10.2606
自分に	-10.2608
そんなもん	-10.2609
とか言って	-10.2611
税	-10.2612
モー	-10.2612
危ない	-10.2615
ないのは	-10.262
だったけど	-10.2623
ついてる	-10.2624
とかある	-10.2627
▁テレビ	-10.2628
食わ	-10.2629
んどる	-10.2631
教え	-10.2632
はいけない	-10.2634
本物	-10.2634
三浦	-10.2635
参	-10.2638
そいつ	-10.264
中崎	-10.2643
件	-10.2644
一般人	-10.2646
うーん	-10.2646
それぞれ	-10.2653
画	-10.2657
称	-10.2657
政	-10.266
力が	-10.2661
とり	-10.2662
誠	-10.2664
あるんや	-10.2664
ﾀ	-10.2664
』	-10.2664
ニッコリ	-10.2665
イマイチ	-10.2665
▁そらそうよ	-10.2665
最低限	-10.2665
信頼	-10.2665
ノーノー	-10.2667
▁ありがとう	-10.2667
通報	-10.2668
・・・？	-10.267
タッチ	-10.267
なんだけど	-10.2671
東京ドーム	-10.2675
三嶋	-10.2675
観戦	-10.2677
する確率	-10.2683
▁昔は	-10.2685
でしか	-10.2689
くれて	-10.2691
過去	-10.2691
ませ	-10.2692
と違って	-10.2693
ことになる	-10.2695
するなら	-10.2696
売れ	-10.2697
荒	-10.2699
るだけ	-10.2704
じゃないから	-10.2704
▁岸	-10.2709
▁いけるやん	-10.2718
ハン	-10.2719
打たれ	-10.2731
▁こ	-10.2731
ええよ	-10.2734
いったら	-10.2739
▁うん	-10.274
さあ	-10.2741
▁西川	-10.2746
演	-10.2747
倒	-10.275
どっちも	-10.2751
砲	-10.2754
優秀	-10.2762
医	-10.2762
毒	-10.2762
見てたら	-10.2762
信者	-10.2763
が強い	-10.2765
登	-10.2766
示	-10.2766
日常	-10.2766
ノムスケ	-10.2769
ﾄ	-10.2769
パットン	-10.2769
けっこう	-10.2769
すげー	-10.2769
急募	-10.2769
スカウト	-10.2769
変更	-10.2769
魔法	-10.277
清宮	-10.277
かもしれんけど	-10.277
中で	-10.2772
きらい	-10.2774
手が	-10.2779
思え	-10.278
なあかん	-10.2781
浮	-10.2788
フォー	-10.2792
たンゴ	-10.2796
言わ	-10.2798
どない	-10.2802
▁リ	-10.2807
最初に	-10.2808
杉	-10.281
せた	-10.2812
どこも	-10.2826
我	-10.2828
鯉	-10.283
綺麗	-10.283
▁子供	-10.2835
▁15	-10.2835
組み	-10.2836
言われてた	-10.2842
昔から	-10.2843
ヤバ	-10.2844
食え	-10.285
居ない	-10.2851
伝え	-10.2855
ケー	-10.2855
打線が	-10.2855
申し訳ない	-10.2858
もおる	-10.2864
いれば	-10.2865
比較	-10.2866
君が	-10.2866
インド	-10.2867
▁長	-10.2868
のホームラン	-10.2868
石田	-10.2868
至	-10.2871
商	-10.2871
弁	-10.2872
麺	-10.2874
冗談	-10.2874
恥	-10.2874
譲	-10.2874
よっぽど	-10.2874
明後日	-10.2874
ならない	-10.2874
アジア	-10.2874
判定	-10.2875
当たった	-10.2875
ゴリラ	-10.2875
画面	-10.2876
スイング	-10.2877
藤田	-10.2878
やっても	-10.2881
たりする	-10.2881
の確率	-10.2882
見てると	-10.2885
これだけ	-10.2889
▁オリ	-10.2894
好きや	-10.2895
一言	-10.2897
日本代表	-10.2902
寝て	-10.2904
のほう	-10.2911
wwww	-10.2913
新井さん	-10.2914
仕方ないね	-10.2917
なかったから	-10.292
こない	-10.2928
切った	-10.2929
▁次は	-10.2938
感が	-10.2939
勝ち越し	-10.2951
あん	-10.2951
たの	-10.2952
助け	-10.2958
▁ファン	-10.296
読	-10.296
内で	-10.2966
▁巨人は	-10.2972
値	-10.2973
嫌や	-10.2974
登場	-10.2977
伊	-10.2977
瀬	-10.2978
設	-10.2978
胃	-10.2979
芝	-10.298
樹	-10.298
焦	-10.298
スギィ	-10.298
沼	-10.298
ｽ	-10.298
覚悟	-10.298
差し	-10.2981
指標	-10.2981
一瞬	-10.2981
早稲田	-10.2981
残留	-10.2981
美人	-10.2982
してるけど	-10.2983
あるよな	-10.2984
部活	-10.2985
わけじゃない	-10.2987
今回	-10.2988
マル	-10.2988
▁なんやそれ	-10.2992
最近の	-10.2993
人たち	-10.2996
探して	-10.2997
いけるやん	-10.2998
st	-10.3
つつ	-10.3
できれば	-10.3
振	-10.3
書け	-10.3005
規制	-10.3005
ボン	-10.3007
年は	-10.3011
だろうけど	-10.3013
▁沖縄	-10.3014
族	-10.3018
打たない	-10.302
言うて	-10.3025
ｗｗｗｗ	-10.3026
芸	-10.3032
闘	-10.3032
▁普段	-10.3033
生え	-10.3039
の流れ	-10.304
分かって	-10.304
専用	-10.3041
400	-10.3052
俺の	-10.3053
ショー	-10.3059
チェ	-10.3065
負けたら	-10.3067
向か	-10.3068
）」	-10.3072
厳	-10.3072
聴	-10.3074
場面	-10.3074
▁大瀬良	-10.3076
んやろうか	-10.3078
せず	-10.308
堂林	-10.3084
出したら	-10.3086
マツダ	-10.3088
インタビュー	-10.3088
ソフバン	-10.3088
カラオケ	-10.3088
思考	-10.3088
爆弾	-10.3089
左翼	-10.309
運転	-10.3091
セブン	-10.3093
an	-10.3096
大きく	-10.3097
巻き	-10.31
ピロ	-10.3102
物語	-10.3103
耐え	-10.3103
とおもう	-10.3105
クリア	-10.3105
分かった	-10.3107
付く	-10.3115
ジャー	-10.3115
▁誰も	-10.3115
込んだ	-10.3116
困	-10.3118
コー	-10.3118
▁それとも	-10.3119
ッパ	-10.3124
被	-10.3129
すぎや	-10.3133
覚えてる	-10.3139
言えない	-10.3143
もう少し	-10.3144
使わない	-10.3146
考えた	-10.3151
明日は	-10.3154
▁あら	-10.3157
国の	-10.3159
に来る	-10.3161
出してる	-10.3162
たくなる	-10.3168
したで	-10.3176
ファンは	-10.3181
終わ	-10.3182
代わり	-10.3186
の顔	-10.3188
世界の	-10.319
ハード	-10.3191
よし	-10.3191
れたら	-10.3192
果	-10.3193
快	-10.3194
はお	-10.3195
魂	-10.3196
メーカー	-10.3197
煮	-10.3197
↓	-10.3197
パソコン	-10.3197
宗	-10.3197
MLB	-10.3197
からしたら	-10.3197
規定	-10.3197
柳	-10.3197
失礼	-10.3198
消費	-10.3198
おるで	-10.3199
単語	-10.32
安倍	-10.32
飛ぶ	-10.32
回裏	-10.32
現代	-10.3201
色んな	-10.3201
以内	-10.3202
載	-10.3202
お願い	-10.3202
二桁	-10.3202
はあった	-10.3203
真似	-10.3204
事が	-10.3204
ってどこ	-10.3205
サイズ	-10.3206
わかり	-10.3206
のため	-10.3208
和田	-10.3208
ミン	-10.321
▁わいは	-10.3211
立つ	-10.3214
んだろうな	-10.3222
って言った	-10.3224
あるな	-10.3225
ああああああああああああああああ	-10.323
ししゃーない	-10.3232
主力	-10.3239
ちゃうで	-10.3242
始める	-10.3242
▁ラ	-10.3243
なさ	-10.3245
▁早く	-10.3255
えば	-10.3257
無駄に	-10.3261
どうなる	-10.3262
いこう	-10.3271
ことや	-10.3272
っていうか	-10.3272
▁野村	-10.3273
一体	-10.3278
草生えた	-10.3285
▁石原	-10.3286
もなく	-10.3287
史	-10.3287
▁金本	-10.3287
願	-10.3288
スポ	-10.329
似てる	-10.3294
られへん	-10.3294
ではなく	-10.3295
基	-10.3295
▁ド	-10.33
ってのも	-10.3301
適	-10.3301
▁問題は	-10.3302
みたいや	-10.3303
スケ	-10.3304
尚	-10.3305
ｺ	-10.3306
氏	-10.3306
居酒屋	-10.3306
直倫	-10.3307
静岡	-10.3307
sage	-10.3307
政権	-10.3307
取れない	-10.3308
ブログ	-10.3308
呼ぶ	-10.3308
気もする	-10.3311
は流石に	-10.3312
下で	-10.3313
攻め	-10.3314
▁今度	-10.3315
にとって	-10.3317
戸柱	-10.3317
DeNA	-10.3318
柴田	-10.3319
オランダ	-10.3319
狭い	-10.3322
事情	-10.3322
世の中	-10.3324
いいけど	-10.3327
の声	-10.3329
しょうがないね	-10.3329
思	-10.3331
ロック	-10.3337
ラスト	-10.3337
▁北海道	-10.3338
まったく	-10.3338
消えて	-10.334
個人的に	-10.3343
番長	-10.3347
選ぶ	-10.3348
踏み	-10.3348
▁CS	-10.3351
やと思うわ	-10.3351
▁毎日	-10.3351
他人	-10.3352
オタ	-10.3353
期待してる	-10.3355
るなら	-10.3358
かかって	-10.3359
送り	-10.336
元々	-10.336
んやろうな	-10.3363
したんか	-10.3366
中心	-10.3369
考えてる	-10.3373
パイ	-10.3383
いいよ	-10.3388
だよね	-10.339
▁次の	-10.3399
たった	-10.34
術	-10.3404
28	-10.3412
って思った	-10.3414
敷	-10.3416
ベイスターズ	-10.3418
甲	-10.3418
携帯	-10.3418
記念	-10.3418
岩瀬	-10.3418
演技	-10.3418
兵器	-10.3418
遠藤	-10.3419
柿田	-10.3419
散々	-10.3419
パチ	-10.3423
パス	-10.3427
おるけど	-10.3433
食った	-10.3433
やったか	-10.3437
台湾	-10.3438
▁君	-10.3439
自体が	-10.3441
サイン	-10.3442
▁ただの	-10.3443
実況スレ	-10.3445
上本	-10.3445
笑う	-10.3447
石原	-10.3447
そうなる	-10.3448
テロ	-10.3448
▁今村	-10.345
ところは	-10.3456
決めた	-10.3457
ええと思う	-10.3457
守備は	-10.3463
でもいい	-10.3465
のアレ	-10.3467
深い	-10.3467
▁どの	-10.347
がどう	-10.3472
▁T	-10.3476
許して	-10.3481
ときの	-10.3484
おらんやろ	-10.3484
あいつ	-10.3486
あかんのか	-10.3492
わよ	-10.3504
はい	-10.3518
受ける	-10.3519
やないんか	-10.3521
略	-10.3525
遺	-10.3528
新幹線	-10.353
堀	-10.353
貰える	-10.353
負担	-10.353
法律	-10.353
使用	-10.3531
権利	-10.3532
直接	-10.3532
テーマ	-10.3532
素直に	-10.3534
らなかった	-10.3534
くわ	-10.3535
守備固め	-10.3536
しなきゃ	-10.3538
ほか	-10.354
ジャンプ	-10.3544
▁言うほど	-10.3549
の時点で	-10.355
▁野間	-10.3551
の時の	-10.3551
似たような	-10.3552
▁D	-10.3554
▁全	-10.3561
▁マジ	-10.3568
▁はえー	-10.357
▁ソフトバンク	-10.3574
使えない	-10.3576
はその	-10.3576
▁茂木	-10.3584
広島戦	-10.3585
寄り	-10.3585
悪かった	-10.3586
()	-10.3587
合わせて	-10.3588
いなかった	-10.3589
▁こう	-10.3593
ルナ	-10.3603
重い	-10.3604
やれば	-10.3605
点台	-10.3605
松本	-10.3606
どうか	-10.3607
トル	-10.3607
いけるやろ	-10.3608
話す	-10.3608
GO	-10.361
▁わいも	-10.3611
どこまで	-10.3611
くせに	-10.3612
▁広島は	-10.3615
▁巨人の	-10.3619
中学	-10.3624
▁エル	-10.3626
▁ドラフト	-10.3627
カープファン	-10.363
▁パワプロ	-10.3635
農	-10.3638
既	-10.364
は草	-10.364
策	-10.3641
介	-10.3641
漢	-10.3643
︎	-10.3644
コピペ	-10.3644
地上波	-10.3644
擁護	-10.3644
自衛隊	-10.3644
苦労	-10.3644
筋トレ	-10.3644
増井	-10.3646
砂田	-10.3647
▁愛	-10.3647
に対する	-10.3649
立場	-10.365
という風潮	-10.3651
ネキ	-10.3651
テスト	-10.3651
分の	-10.3651
言えん	-10.3656
ないなら	-10.3659
どうでもいい	-10.3661
は普通に	-10.3663
スレに	-10.3664
第二	-10.3664
連戦	-10.3667
唯一	-10.3672
しました	-10.3679
・・・」	-10.368
手に	-10.3681
俺も	-10.3682
▁梶谷	-10.3683
は去年	-10.3684
だけやん	-10.3687
▁外	-10.3687
立てて	-10.369
はあかん	-10.3692
貼	-10.3695
出塁率	-10.3702
すごいな	-10.3707
観光	-10.3708
▁だって	-10.3714
▁主人公	-10.3723
下げて	-10.3726
▁海外	-10.3726
かもしれんな	-10.3726
離れ	-10.3728
▁仮に	-10.3732
数学	-10.3733
界	-10.3735
もいる	-10.3736
が高い	-10.3737
に近い	-10.3737
▁自	-10.3737
事は	-10.3744
計	-10.3744
そうなんか	-10.3749
▁上本	-10.3751
減る	-10.3752
▁黒	-10.3753
そうだな	-10.3754
どうなんやろ	-10.3756
真ん中	-10.3756
ガッツ	-10.3757
特徴	-10.3759
温泉	-10.3759
小窪	-10.3759
文章	-10.3759
恋愛	-10.376
杉山	-10.3762
とは言ってない	-10.3762
kg	-10.3762
ボーイ	-10.3762
感情	-10.3763
次は	-10.377
やたら	-10.3771
▁打率	-10.3772
生きてる	-10.3776
どこで	-10.3777
見えない	-10.3779
ラッキー	-10.3779
今から	-10.3781
と思うんやけど	-10.3781
奪	-10.3789
抑える	-10.3793
昔の	-10.3794
開け	-10.3796
かない	-10.3797
戻って	-10.3799
薄い	-10.38
人類	-10.38
おめ	-10.3802
古い	-10.3802
直球	-10.3804
▁ずっと	-10.3806
きゃ	-10.3807
何でも	-10.381
いいぞ	-10.3813
▁新井さん	-10.3814
だったのに	-10.3816
回目	-10.3816
▁明日の	-10.3816
番手	-10.3818
▁基本	-10.3818
多すぎ	-10.3821
乙	-10.3822
中井	-10.3823
てクレメンス	-10.3824
やししゃーない	-10.3827
出さない	-10.3833
すご	-10.3837
▁野手	-10.384
▁一人	-10.384
々と	-10.3842
みたいなやつ	-10.3846
伸びる	-10.3851
賢	-10.3853
SS	-10.3856
出てこない	-10.3861
チャー	-10.3866
ええぞ	-10.3867
イド	-10.387
補	-10.387
黙	-10.3871
姫	-10.3874
縁	-10.3874
検	-10.3874
ヨーロッパ	-10.3875
頑張った	-10.3875
&#39;	-10.3875
ソシャゲ	-10.3875
鴎	-10.3875
UZR	-10.3875
競技	-10.3875
弁当	-10.3876
好調	-10.3876
揚げ	-10.3877
歌詞	-10.3877
36	-10.3877
吉村	-10.3877
野党	-10.3878
落とした	-10.3878
案外	-10.3878
迷惑	-10.388
ガチャ	-10.388
ひとつ	-10.3882
▁普通の	-10.3892
点は	-10.3893
若者	-10.3893
のない	-10.3903
以前	-10.3903
私立	-10.3905
返して	-10.3906
こんなこと	-10.3909
あっち	-10.391
スラ	-10.391
パート	-10.3913
▁バ	-10.3916
完	-10.3918
▁ハマスタ	-10.3919
多いから	-10.3929
森福	-10.3931
源田	-10.3931
ッキー	-10.3932
塗	-10.3932
▁阪神は	-10.3936
くらいや	-10.3936
▁ごめん	-10.3941
ついに	-10.3941
▁そっち	-10.395
浪人	-10.3951
チュー	-10.3953
前田	-10.3955
平日	-10.3955
魅力	-10.3956
そうか	-10.3956
としか	-10.3957
二つ	-10.3962
せない	-10.3962
ーーー	-10.3972
浅	-10.3977
▁オランダ	-10.3979
するけど	-10.398
バース	-10.3982
叩かれ	-10.3985
徳	-10.3987
言わない	-10.399
制限	-10.3992
朝鮮	-10.3992
ぴ	-10.3992
得点圏	-10.3992
密	-10.3992
幅	-10.3992
麦	-10.3992
デスパイネ	-10.3992
靴	-10.3992
亜	-10.3992
キツい	-10.3992
素材	-10.3993
▁ていうか	-10.3994
絶対に	-10.3994
自分語り	-10.3994
ノーコン	-10.3996
フラグ	-10.3996
落合	-10.3996
業界	-10.3997
ああ	-10.3998
為	-10.3998
ジャンル	-10.3998
ュー	-10.3999
制度	-10.4
友人	-10.4
いても	-10.4001
しとるで	-10.4002
の時代	-10.4002
ｗｗ	-10.4003
スリー	-10.4003
思わん	-10.4004
ちゃった	-10.4004
▁防御率	-10.4005
あそこ	-10.4007
決まって	-10.4016
は別に	-10.4017
と一緒	-10.402
なんやね	-10.4021
3000	-10.4022
くじ	-10.4024
受けて	-10.4026
してたけど	-10.4026
▁青柳	-10.4026
しちゃ	-10.4028
高木	-10.4029
マーク	-10.4032
価	-10.4034
フレ	-10.4034
スカ	-10.4034
広島の	-10.4035
スレ立てて	-10.4038
とれる	-10.4039
の動画	-10.4039
君の	-10.4041
の人が	-10.4045
29	-10.4048
ロング	-10.405
建	-10.4054
違った	-10.406
▁逆	-10.406
人物	-10.4062
のとこ	-10.4062
▁ってか	-10.4063
回って	-10.4063
向こう	-10.4064
そういうの	-10.4067
▁本人	-10.4069
▁足	-10.4074
▁あかん	-10.4076
チームが	-10.4077
って思って	-10.408
動く	-10.4083
点数	-10.4084
▁打撃	-10.4087
打数	-10.4087
込ま	-10.4088
はほぼ	-10.4095
するやろ	-10.4096
が来る	-10.4096
独	-10.4096
荒れる	-10.4101
宿	-10.4106
禁	-10.411
ｳ	-10.4111
コーヒー	-10.4111
ペーニャ	-10.4111
新潟	-10.4111
いっつも	-10.4112
トラウマ	-10.4112
珍しい	-10.4112
顔が	-10.4113
広告	-10.4113
面接	-10.4113
入れ替え	-10.4113
有利	-10.4114
せなあかん	-10.4114
りそう	-10.412
▁30	-10.412
やしなぁ	-10.4121
めんどくさい	-10.4121
制球	-10.4122
時計	-10.4123
描く	-10.4129
ファーム	-10.413
れへん	-10.4133
走る	-10.4138
詰	-10.4141
なんだよな	-10.4141
に来た	-10.4144
２０	-10.4148
っちゃう	-10.4148
月に	-10.4151
って言われた	-10.4155
▁昔の	-10.4157
持った	-10.4159
って聞いた	-10.4167
はいい	-10.4172
郎	-10.4175
やんな	-10.4176
外野手	-10.4177
挙げ	-10.4178
だいたい	-10.4178
持て	-10.4179
ｗｗｗｗｗｗ	-10.4179
佐々木	-10.4182
NHK	-10.4183
ゲレーロ	-10.4183
浅村	-10.4183
バルデス	-10.4184
別れ	-10.4184
フォ	-10.4186
らしいから	-10.4189
ウン	-10.4189
らす	-10.419
認め	-10.419
も多い	-10.419
とか言ってた	-10.4193
がんば	-10.4198
以上の	-10.4199
が出	-10.4201
暗	-10.4206
所で	-10.4206
の可能性	-10.4214
▁この回	-10.4216
圧	-10.4218
ジャン	-10.4221
付いて	-10.4226
ってことや	-10.423
府	-10.423
例え	-10.423
桜	-10.4231
疑	-10.4231
大統領	-10.4232
頂	-10.4232
辻	-10.4232
噂	-10.4232
現象	-10.4232
資格	-10.4233
▁あんまり	-10.4234
近鉄	-10.4235
女装	-10.4237
いい加減	-10.4239
さんも	-10.4241
阪神ファン	-10.4244
山岡	-10.4244
シェ	-10.425
どれだけ	-10.4251
汚い	-10.4254
一軍で	-10.4254
どん	-10.4264
ハムさん	-10.4267
もあるけど	-10.4271
ウォー	-10.4274
▁言うて	-10.4276
と思うんやが	-10.4277
休ませ	-10.4281
にいた	-10.4282
小川	-10.4282
比べ	-10.4285
やれる	-10.4286
わけない	-10.4291
▁新井	-10.4292
合わ	-10.4297
▁松山	-10.4301
働いて	-10.4303
お互い	-10.4307
言い方	-10.4308
▁全然	-10.4309
▁本家	-10.431
ゅ	-10.4311
この時期	-10.4311
▁車	-10.4311
のような	-10.4312
足りない	-10.4315
ええんちゃうか	-10.4315
思われ	-10.4317
井納	-10.4318
除	-10.432
出来た	-10.4325
きました	-10.4327
▁田舎	-10.4327
始まる	-10.4328
▁天	-10.4329
俺が	-10.4333
今回は	-10.4334
はなん	-10.4337
話が	-10.4338
見れば	-10.4339
ここに	-10.4339
しとらん	-10.4339
ってるから	-10.4341
打た	-10.4344
可	-10.4349
はないやろ	-10.4351
豆	-10.4353
露	-10.4353
膝	-10.4354
常識	-10.4354
難易度	-10.4354
っぷり	-10.4354
二遊間	-10.4354
マテオ	-10.4354
アフリカ	-10.4354
いちいち	-10.4354
しゃあない	-10.4354
加賀	-10.4354
お願いします	-10.4355
志望	-10.4355
川端	-10.4357
強制	-10.4357
いいから	-10.4359
モード	-10.4359
木村	-10.436
減って	-10.4361
じゃないけど	-10.4362
を持って	-10.4362
PS	-10.4363
そうそう	-10.4363
勝ち星	-10.4366
内海	-10.4366
息子	-10.4368
特別	-10.4369
る間に	-10.437
ゾーン	-10.437
分かり	-10.4371
謝	-10.4372
暴	-10.4373
みるわ	-10.4375
見れない	-10.4377
できへん	-10.4379
▁武田	-10.4379
いつまで	-10.4379
おるし	-10.438
出せる	-10.4381
きたい	-10.4383
あったっけ	-10.4385
▁今永	-10.4385
子が	-10.439
自分を	-10.4391
押	-10.4391
おらんのか	-10.4394
アイス	-10.4395
下がる	-10.4398
市民	-10.4401
てくれる	-10.4402
なんぼ	-10.4402
おるんや	-10.4406
怒り	-10.4411
巨人さん	-10.4413
ありがとう	-10.4415
襲	-10.4417
でしょうか	-10.4421
握	-10.4422
けどね	-10.4425
▁松坂	-10.4426
カバー	-10.4428
余裕で	-10.443
に来て	-10.4432
はみんな	-10.4434
乗って	-10.4435
くら	-10.4437
ぐらいの	-10.4438
AT	-10.4441
気をつけ	-10.4444
北朝鮮	-10.4444
がないから	-10.4448
川崎	-10.4448
国内	-10.4448
が必要	-10.4449
巨人に	-10.445
変えた	-10.4452
ほうがええ	-10.4455
かれ	-10.4456
ないのが	-10.446
狭	-10.446
なかったけど	-10.446
たっけ	-10.4462
興味ない	-10.4467
言うてた	-10.4468
が良い	-10.4472
な感じ	-10.4472
条	-10.4473
飲	-10.4474
圏	-10.4476
微妙な	-10.4477
オーストラリア	-10.4477
硬	-10.4477
絞	-10.4477
カミネロ	-10.4477
ｱ	-10.4477
白鵬	-10.4478
名作	-10.4478
もったいない	-10.4478
担当	-10.4478
成瀬	-10.4479
チェック	-10.4479
▁雨	-10.4479
修正	-10.448
学園	-10.448
やったのに	-10.4482
したのは	-10.4485
やめてクレメンス	-10.4486
▁牧田	-10.4488
記者	-10.4489
ストレス	-10.449
言うても	-10.4491
▁自分が	-10.4493
初代	-10.4495
軍の	-10.4496
角中	-10.4496
回し	-10.4497
されてない	-10.45
がおかしい	-10.4505
セル	-10.4507
んだろう	-10.4509
一時期	-10.4509
だったな	-10.4514
▁そらもう	-10.4516
見え	-10.4516
▁下	-10.4517
位で	-10.4518
▁関西	-10.4519
▁第	-10.452
ポー	-10.4522
一方	-10.4526
は違う	-10.4529
▁いくら	-10.4532
信じて	-10.4532
すぎて草	-10.4538
見てみ	-10.454
どこの	-10.4544
高め	-10.4545
も無い	-10.4547
あえて	-10.455
のが一番	-10.4551
の大	-10.4553
四国	-10.4553
どちら	-10.4556
見てみたい	-10.4557
ビル	-10.4558
作れる	-10.4566
になるんか	-10.4567
電気	-10.4568
日本で	-10.4568
くても	-10.4571
シーズン中	-10.4575
同士	-10.4575
そういうこと	-10.4576
デイ	-10.4578
陸	-10.4579
当時の	-10.458
持つ	-10.458
歴	-10.4585
割り	-10.459
月の	-10.4595
キリ	-10.4599
延	-10.4599
判	-10.46
Ｐ	-10.4602
Ｇ	-10.4602
機械	-10.4602
泊	-10.4602
バティスタ	-10.4602
某	-10.4602
需要	-10.4602
敬遠	-10.4603
炭谷	-10.4603
奇跡	-10.4603
選挙	-10.4603
辞退	-10.4603
突然	-10.4603
操作	-10.4604
空振り	-10.4606
観客	-10.4606
平成	-10.4606
利用	-10.4607
ござ	-10.4607
萌え	-10.4608
ーや	-10.4609
あんなに	-10.4609
らせる	-10.4609
たこと	-10.461
吉見	-10.4611
づらい	-10.4612
やないの	-10.4614
翔さん	-10.4615
左右	-10.4617
白井	-10.4618
一点	-10.4623
家で	-10.4626
単位	-10.4632
年連続	-10.4632
▁18	-10.4632
ラブ	-10.4633
おり	-10.4634
ない模様	-10.4637
可能性が	-10.4642
やめる	-10.4644
やつおる	-10.4648
とるで	-10.4649
グリ	-10.4651
言うてる	-10.4652
大関	-10.4662
周りに	-10.4665
頭に	-10.4666
何度も	-10.4672
書いてる	-10.4676
好投	-10.4676
抑えて	-10.4677
一個	-10.4678
ガス	-10.4679
▁イン	-10.4681
買わ	-10.4683
！！」	-10.4684
▁えっ	-10.4686
は割と	-10.4689
そこから	-10.469
はさすがに	-10.4692
みたいなこと	-10.4693
いとる	-10.4694
滑	-10.4695
構え	-10.47
.8	-10.4702
99	-10.4703
戦う	-10.4708
の仕事	-10.4709
ってなんやねん	-10.471
感じる	-10.471
のにな	-10.4711
生まれた	-10.4713
ないように	-10.4713
指導	-10.4714
頃に	-10.4716
議	-10.4716
まくってる	-10.4717
前後	-10.4718
まんま	-10.4718
スキー	-10.4719
ゴン	-10.4719
堂	-10.4719
になっても	-10.4719
正義	-10.4721
雄洋	-10.4721
必要な	-10.4722
んだぞ	-10.4723
お前が	-10.4723
抗	-10.4727
柄	-10.4728
境	-10.4728
罰	-10.4729
嫉妬	-10.4729
(´・	-10.4729
雅	-10.4729
経営	-10.4729
選手に	-10.473
止	-10.473
競合	-10.4731
大きな	-10.4731
痩せ	-10.4733
出会い	-10.4733
行けば	-10.4733
るんやろか	-10.4741
コラ	-10.4741
ジョー	-10.4741
づ	-10.4743
ゴール	-10.4743
チョコ	-10.4747
中止	-10.4749
なんやかんや	-10.4752
差が	-10.476
フジ	-10.4761
▁そういうの	-10.4765
引く	-10.4768
かす	-10.4773
払い	-10.4776
姿	-10.4777
はどうや	-10.4778
喜んで	-10.4782
おるやろ	-10.4782
でええんか	-10.4784
ぶん	-10.4787
カリ	-10.4787
ターン	-10.4788
せな	-10.4791
ベー	-10.4793
▁千賀	-10.4794
だろうな	-10.4797
JR	-10.4799
来週	-10.4799
気がするわ	-10.4802
スイッチ	-10.4805
で見た	-10.4807
うん	-10.4808
売って	-10.4811
さを	-10.4818
方向	-10.4818
▁ファースト	-10.4818
ある意味	-10.4819
いるけど	-10.4819
観て	-10.482
人多い	-10.482
立てる	-10.4822
とする	-10.4826
回に	-10.4826
よか	-10.4828
ほしいわ	-10.4829
になってから	-10.4831
のかね	-10.4832
見られる	-10.4833
も好き	-10.4833
去	-10.4835
それ以外	-10.4836
物理	-10.4836
かと思った	-10.4837
▁京都	-10.484
34	-10.4841
好きやけど	-10.4844
▁中島	-10.4844
められ	-10.4847
ユー	-10.4848
労働	-10.4848
走って	-10.4849
秋吉	-10.4849
使わん	-10.4849
レアード	-10.4849
杯	-10.4851
!?	-10.4851
裂	-10.4852
DS	-10.4853
国語	-10.4854
佐	-10.4854
マック	-10.4854
練	-10.4856
逮捕	-10.4857
首脳陣	-10.4857
｀	-10.4857
おーぷん	-10.4857
匹	-10.4857
緑	-10.4857
ﾛ	-10.4857
野獣先輩	-10.4857
回避	-10.4858
森繁	-10.4858
不快	-10.4859
佐野	-10.4859
まさに	-10.486
噛み	-10.4861
主張	-10.4861
使えば	-10.4861
▁そこは	-10.4863
総合	-10.4863
移民	-10.4868
ないだろ	-10.4869
スマン	-10.4869
体重	-10.487
もし	-10.4874
▁そうなん	-10.4875
ボロ	-10.4877
ノート	-10.4878
書いてある	-10.4878
追	-10.4878
チームに	-10.4879
毎	-10.488
▁優勝	-10.4883
▁ちな虎	-10.4884
無失点	-10.4885
外す	-10.4887
ワイには	-10.4889
事に	-10.4891
多くて	-10.4892
.5	-10.4893
はしない	-10.4903
▁内川	-10.4903
▁バルデス	-10.4904
のレベル	-10.4909
あげた	-10.4914
▁シ	-10.4914
あるぞ	-10.4919
山本	-10.492
阪神の	-10.4921
目で	-10.4922
支	-10.4925
の影響	-10.4928
壊れ	-10.4932
するな	-10.4936
あったんか	-10.4937
しくて	-10.4939
アニ	-10.4942
われる	-10.4943
冷	-10.4949
▁ほんまや	-10.4951
始	-10.4958
▁大体	-10.4961
ドリ	-10.4969
するのか	-10.497
恐	-10.497
わからんわ	-10.497
お前の	-10.4972
ロッテの	-10.4972
この前	-10.4973
覚えて	-10.4976
近くに	-10.4976
評	-10.498
そうでもない	-10.4981
存	-10.4982
ヴァ	-10.4983
可能	-10.4983
景	-10.4984
撮	-10.4984
しろや	-10.4984
節	-10.4986
▁柳田	-10.4986
泉	-10.4987
すっごい	-10.4987
ゾンビ	-10.4987
バッティング	-10.4987
殆ど	-10.4987
猛	-10.4987
七	-10.4987
仁	-10.4987
放題	-10.4987
詳しい	-10.4987
思想	-10.4987
発展	-10.4987
佐藤	-10.4988
セン	-10.4988
▁今北産業	-10.4988
キューバ	-10.4988
家庭	-10.4989
舞台	-10.4989
亀井	-10.4989
メッセ	-10.4989
スペック	-10.4989
右翼	-10.4989
細川	-10.499
やらない	-10.4991
合格	-10.4991
まさか	-10.4993
安全	-10.4994
どんだけ	-10.4998
▁ホンマ	-10.5
番号	-10.5001
の曲	-10.5004
かく	-10.5006
のでは	-10.5008
んちゃうの	-10.5013
と言えば	-10.5016
イク	-10.5017
大切	-10.5017
きれ	-10.502
といて	-10.5021
だす	-10.5023
内野手	-10.5023
▁ガチで	-10.5024
広島に	-10.5029
のになんで	-10.5032
下に	-10.5034
したこと	-10.5034
ずつ	-10.5041
りたい	-10.5042
ではある	-10.5042
合わない	-10.5043
わけではない	-10.5043
だの	-10.5043
▁解説	-10.5047
スレは	-10.5047
▁13	-10.5049
高く	-10.505
われ	-10.506
様に	-10.5061
食べた	-10.5063
ちゃうん	-10.5063
めん	-10.5064
巨人が	-10.507
科学	-10.5074
も結構	-10.5078
の評価	-10.5079
あとは	-10.5079
なしで	-10.508
するンゴ	-10.508
すま	-10.5082
歌って	-10.5083
の応援歌	-10.5083
金子	-10.5085
グレ	-10.5087
はっきり	-10.5091
暴れ	-10.5094
55	-10.5095
パク	-10.51
みたいなもんや	-10.5101
地味に	-10.5101
ブルー	-10.5101
▁開幕	-10.5101
厚	-10.5104
競馬	-10.5105
▁福留	-10.5105
だったのか	-10.5106
ォ	-10.5107
散	-10.5108
ちゃんは	-10.5112
走塁	-10.5114
幕	-10.5117
おって	-10.5118
泥	-10.5118
虚	-10.5118
フレンズ	-10.5119
保険	-10.5119
相変わらず	-10.5119
和歌山	-10.5119
祈	-10.5119
嵐	-10.5119
諸	-10.5119
漢字	-10.5119
ロボット	-10.512
▁悲しいなぁ	-10.512
矢野	-10.5121
産業	-10.5121
になりたい	-10.5122
内野安打	-10.5126
誕生日	-10.5127
輝	-10.5128
濱口	-10.5129
本来	-10.5131
近藤	-10.5131
澤村	-10.5132
処理	-10.5132
巨人戦	-10.5132
なんとかなる	-10.5133
ヘル	-10.5134
2016	-10.5134
ほん	-10.5136
やはり	-10.5141
笑顔	-10.5144
って今	-10.5151
ブン	-10.5154
にいく	-10.5154
▁C	-10.5155
ごと	-10.5156
万人	-10.5156
ドー	-10.5157
ショ	-10.5158
文系	-10.516
統	-10.5162
チャン	-10.5164
大松	-10.5167
回る	-10.5169
OP	-10.517
▁だいたい	-10.5172
かったんや	-10.5175
期待して	-10.5176
面白くない	-10.5177
うま	-10.5178
2013	-10.5178
の調子	-10.518
▁国	-10.5183
リスト	-10.5186
許され	-10.5187
んだよね	-10.5188
ナイス	-10.519
▁リアル	-10.5193
げる	-10.5194
受けた	-10.5195
48	-10.5198
しろよ	-10.5198
察	-10.52
おいて	-10.5202
うっ	-10.5203
統一	-10.5206
行ってる	-10.5207
イカ	-10.5207
アンド	-10.521
調べ	-10.5221
きそう	-10.5222
▁オープン戦	-10.5226
どっかで	-10.5229
の投手	-10.5231
そば	-10.5231
酔	-10.5233
マス	-10.5233
組んで	-10.5235
被害	-10.5245
▁赤	-10.5245
に戻	-10.5246
なろう	-10.5246
逃	-10.5247
協	-10.5247
それも	-10.5248
整	-10.5249
領	-10.525
便利	-10.5251
ありがと	-10.5251
担	-10.5251
Ｄ	-10.5252
LINE	-10.5252
之	-10.5252
乾	-10.5252
マスコミ	-10.5252
唱	-10.5252
貫	-10.5252
特殊	-10.5252
選択肢	-10.5252
誇	-10.5252
気づいた	-10.5252
ドミニカ	-10.5252
健康	-10.5252
クルーズ	-10.5252
運営	-10.5252
兄弟	-10.5253
鹿島	-10.5253
休養	-10.5253
杉谷	-10.5253
みたいなん	-10.5253
球審	-10.5254
あくしろよ	-10.5256
宮西	-10.5257
コンビ	-10.5259
らし	-10.5262
異世界	-10.5263
▁個人的には	-10.5265
なくていい	-10.5265
曲が	-10.5267
多くない	-10.5269
試合連続	-10.5269
脚	-10.5269
の模様	-10.527
スリ	-10.5272
又吉	-10.5273
ドア	-10.5275
▁映画	-10.5281
小学校	-10.5282
忘れて	-10.5287
せめて	-10.5288
短い	-10.5289
エア	-10.5289
どこか	-10.529
お疲れ	-10.5293
カッ	-10.5295
いら	-10.5296
見たくない	-10.5298
守れ	-10.5299
飼	-10.5299
経験者	-10.53
土地	-10.5302
なくない	-10.5303
▁お互い	-10.5304
日本が	-10.5304
最終的に	-10.5307
いな	-10.531
出さ	-10.531
辞めた	-10.531
にとっては	-10.5311
長く	-10.5312
....	-10.5314
はじめ	-10.5318
無知	-10.5324
当たって	-10.5325
デン	-10.5328
付けて	-10.5329
とるんや	-10.5337
▁ビシエド	-10.534
テレビで	-10.5345
るンゴ	-10.535
立てた	-10.5352
やろね	-10.5363
新作	-10.5365
プレミア	-10.5368
▁たしかに	-10.5369
に見えた	-10.537
何の	-10.5375
すぐに	-10.5376
復	-10.5377
嫌いや	-10.5377
導	-10.5382
札	-10.5383
射	-10.5383
おく	-10.5384
▁せっかく	-10.5385
したくない	-10.5386
測	-10.5386
階	-10.5386
_	-10.5387
ｃ	-10.5387
クローザー	-10.5387
レジェンド	-10.5387
掲示板	-10.5387
ｨ	-10.5387
ヤマヤス	-10.5387
兵庫	-10.5388
仙台	-10.5388
奈良	-10.5388
反省	-10.5388
オールスター	-10.5388
どうなんや	-10.5389
ものは	-10.5389
行為	-10.539
ダブル	-10.5392
後輩	-10.5393
▁ご	-10.5393
悪くて	-10.5396
・・・・	-10.5396
たんやろ	-10.5397
と思います	-10.5399
に出て	-10.5401
震え	-10.5402
わかってる	-10.5409
言い訳	-10.5412
モテ	-10.5413
僕は	-10.5416
と思っとる	-10.5416
待つ	-10.5417
薮田	-10.5417
大丈夫なんか	-10.5417
コール	-10.5418
今更	-10.542
食える	-10.5422
くれたら	-10.5422
ファール	-10.5424
▁こういうの	-10.5424
▁三浦	-10.5429
なさすぎ	-10.543
働	-10.5431
が出てくる	-10.5438
チビ	-10.5441
くさ	-10.5443
留	-10.5444
とこで	-10.5447
してそう	-10.5448
▁大島	-10.5454
▁手	-10.5455
▁ど	-10.5458
ナル	-10.5463
人おる	-10.5463
の中では	-10.5463
▁実況	-10.5469
お前は	-10.5469
守る	-10.547
.7	-10.5471
▁そこで	-10.5472
とれ	-10.5473
あるのか	-10.548
めてる	-10.5486
ぺ	-10.5488
▁ドラ	-10.5488
▁外野	-10.549
FF	-10.5491
間違えて	-10.5491
叩かれて	-10.5491
晩	-10.5499
っつ	-10.5505
するやつ	-10.5508
必要ない	-10.5511
ニング	-10.5512
司	-10.5516
だけやぞ	-10.5516
トー	-10.5517
の世界	-10.5517
こともある	-10.5517
変わり	-10.5519
姉	-10.5523
妥当	-10.5524
汁	-10.5524
使命感	-10.5524
粉	-10.5524
芋	-10.5524
教授	-10.5524
改善	-10.5525
対象	-10.5525
彼氏	-10.5525
放置	-10.5525
久々に	-10.5526
いうほど	-10.5526
ところが	-10.5526
メニュー	-10.5526
ュ	-10.5526
野郎	-10.5527
職場	-10.5529
たしか	-10.5529
強かった	-10.5529
押す	-10.553
VS	-10.553
美馬	-10.553
注目	-10.5531
日は	-10.5531
二次	-10.5532
ナイト	-10.5532
上が	-10.5532
回で	-10.5533
キス	-10.5537
▁現実	-10.554
民が	-10.5542
課金	-10.5543
▁超	-10.5543
わけで	-10.5546
働き	-10.5551
▁ほら	-10.5552
阪神戦	-10.5555
になるで	-10.5555
スロー	-10.5557
の存在	-10.5558
▁そういうこと	-10.5559
楽しく	-10.5559
けば	-10.5559
▁ウ	-10.556
▁お前の	-10.5563
見るの	-10.5563
エリアン	-10.5566
実際に	-10.5566
【	-10.5568
壊れる	-10.5572
してるで	-10.5575
▁ロペス	-10.5578
再生	-10.558
ないといけない	-10.5581
増えて	-10.5591
時代に	-10.5592
こうなる	-10.5594
てて草	-10.5596
にでも	-10.5597
ばれ	-10.5598
は良い	-10.5599
がち	-10.5604
遊んで	-10.5606
によっては	-10.5615
可能性ある	-10.5615
しま	-10.5615
ですの	-10.5621
合って	-10.5627
売ってる	-10.5631
いけない	-10.5633
んちゃうかな	-10.5638
のうち	-10.5641
のファン	-10.5642
あると思う	-10.5646
ジン	-10.5646
みろ	-10.5647
吸	-10.5647
回す	-10.5648
次元	-10.5648
風潮	-10.565
GG	-10.5653
とか言ってる	-10.5654
♪	-10.5657
走り	-10.5661
像	-10.5662
ちゃうやろ	-10.5662
削	-10.5663
眼	-10.5663
祝	-10.5663
アメフト	-10.5663
ワロタ	-10.5663
履	-10.5663
湿	-10.5663
肌	-10.5663
ﾗ	-10.5663
wwwwww	-10.5663
飛行機	-10.5663
しょうがない	-10.5663
イメージある	-10.5663
浦和	-10.5664
採用	-10.5664
心臓	-10.5664
残業	-10.5664
種類	-10.5664
よりはマシ	-10.5666
攻	-10.5668
安達	-10.567
やつら	-10.567
＾～	-10.5671
コナン	-10.5671
集中	-10.5672
まとめて	-10.5673
探す	-10.5674
▁そしたら	-10.5675
ってどう	-10.5677
高速	-10.5679
イケる	-10.5684
▁.	-10.5685
クロス	-10.5686
程度の	-10.5687
軽く	-10.569
何処	-10.5691
込め	-10.57
頭が	-10.57
選んで	-10.5701
が怖い	-10.5703
用の	-10.5704
廃	-10.5705
なきゃいけない	-10.5708
▁ポケモン	-10.5709
▁最初は	-10.5712
ar	-10.5713
マシソン	-10.5714
どこや	-10.5714
青木	-10.5717
OPS	-10.5717
んやけどなあ	-10.572
プリン	-10.5725
▁九里	-10.5725
ヤクルトの	-10.5727
▁当たり前	-10.5728
ョ	-10.5728
バラ	-10.5733
▁ここから	-10.5742
投げさせ	-10.5742
借り	-10.5743
活躍する	-10.5744
あったか	-10.5748
勝てば	-10.5748
側の	-10.575
怖いわ	-10.5752
たる	-10.5754
日で	-10.5755
分から	-10.5758
をする	-10.5761
！！！！！！！	-10.5762
▁中村	-10.5763
任せ	-10.5764
▁いかんでしょ	-10.5769
、、、	-10.5769
白い	-10.5773
かま	-10.5773
田原	-10.5776
せやろか	-10.5783
注	-10.5794
▁柳	-10.5795
来てる	-10.5795
くっ	-10.5796
待て	-10.5798
域	-10.5801
ッコ	-10.5801
矢	-10.5801
楽しめる	-10.5802
刻	-10.5803
下手な	-10.5803
ロス	-10.5804
汗	-10.5804
イタリア	-10.5804
プレッシャー	-10.5804
缶	-10.5804
甲斐	-10.5804
ドラクエ	-10.5804
ハーフ	-10.5804
施設	-10.5804
見せたろか	-10.5804
ﾂ	-10.5804
兄貴	-10.5804
化け物	-10.5806
書き込み	-10.5806
熊原	-10.5807
通信	-10.5809
のところ	-10.581
社長	-10.5811
ハードル	-10.5812
発狂	-10.5812
▁誰が	-10.5814
▁由伸	-10.5815
の打率	-10.5818
人って	-10.5819
あれだけ	-10.582
クス	-10.5822
応援する	-10.5826
▁甲子園	-10.5827
初期	-10.5828
社員	-10.5833
リスク	-10.5835
世間	-10.5837
レア	-10.5837
とは違う	-10.584
男女	-10.5841
買える	-10.5845
▁白崎	-10.5856
男性	-10.5857
大半	-10.5858
キュ	-10.5859
でお	-10.5861
確	-10.5861
締め	-10.5862
ども	-10.5862
なかったか	-10.5862
しよ	-10.5864
どすこい	-10.5865
ポンタ	-10.5865
危	-10.587
われた	-10.5875
テル	-10.5877
ボス	-10.5878
はよく	-10.5879
ワー	-10.5882
だけじゃ	-10.5882
ファンが	-10.5883
までの	-10.5884
前は	-10.589
▁OPS	-10.5894
自民	-10.5898
空いてる	-10.5902
複	-10.5907
まったり	-10.5909
何人	-10.591
抜きで	-10.591
出来て	-10.591
よろしくやで	-10.5915
のエース	-10.5915
ほどの	-10.5919
▁おっさん	-10.5919
かぶ	-10.592
ベンチに	-10.5922
円で	-10.5922
湯	-10.5922
！（	-10.5924
効	-10.5926
吐き	-10.5927
理由は	-10.5929
崩れ	-10.593
年も	-10.593
年くらい	-10.5932
が見たい	-10.5933
場面で	-10.5938
って言われて	-10.594
▁何を	-10.5941
▁16	-10.5944
仏	-10.5945
どうすれば	-10.5945
だったわ	-10.5945
▁早	-10.5945
日曜	-10.5946
紀	-10.5946
縮	-10.5946
酸	-10.5947
デビュー	-10.5947
コイツ	-10.5947
易	-10.5947
人くらい	-10.5947
買おう	-10.5947
目指す	-10.5947
世紀	-10.5947
寂しい	-10.5947
浅尾	-10.5948
チャンテ	-10.5948
ありがたい	-10.5949
対決	-10.5949
発売	-10.595
関連	-10.595
レスバトル	-10.5951
報道	-10.5951
最初の	-10.5954
ですが	-10.5955
済み	-10.5957
明石	-10.5957
せやせや	-10.5957
で使う	-10.5961
力で	-10.5962
若松	-10.5963
▁前回	-10.5964
▁吉田	-10.5967
きつ	-10.5967
ロメロ	-10.5967
打ってた	-10.5967
アツ	-10.5967
発生	-10.597
青山	-10.5972
アカンの	-10.5972
らせて	-10.5976
されても	-10.5978
守って	-10.5979
▁H	-10.5979
とかなら	-10.5981
はないけど	-10.5983
▁セリーグ	-10.5986
いかない	-10.599
せずに	-10.5996
▁松井	-10.6
のゲーム	-10.6001
-4	-10.6004
上げた	-10.6004
もうすぐ	-10.601
そこで	-10.6012
を使う	-10.6017
稀勢の里	-10.6018
ひろ	-10.6018
メヒア	-10.6018
同時に	-10.602
ワクワク	-10.6024
周りの	-10.6025
あかんかった	-10.6034
160	-10.6038
▁英語	-10.6045
思える	-10.6045
やったん	-10.6049
想	-10.6049
▁阪神の	-10.605
捨てて	-10.6061
唯一の	-10.6061
取られて	-10.6066
はいない	-10.6066
▁現地	-10.6066
だったか	-10.6067
すっ	-10.6068
語る	-10.6071
どこでも	-10.6072
緩	-10.6074
▁アレ	-10.6076
残当	-10.6077
なにか	-10.6078
泣き	-10.608
ぐらいしか	-10.6081
ないんやで	-10.6082
祭	-10.6082
▁せやから	-10.6084
してしまう	-10.6086
やり方	-10.6088
ロボ	-10.6088
▁14	-10.6089
ドラゴン	-10.6089
兆	-10.6092
恐怖	-10.6092
スタミナ	-10.6092
咲	-10.6092
を信じろ	-10.6092
掃除	-10.6092
宣伝	-10.6092
ヴィ	-10.6092
組織	-10.6092
へんで	-10.6093
伊東	-10.6093
中央	-10.6093
決まる	-10.6093
公開	-10.6094
たまたま	-10.6094
ちがう	-10.6094
清原	-10.6095
転向	-10.6097
デカ	-10.6099
もしくは	-10.6099
▁どこの	-10.61
昇格	-10.6103
の数	-10.6103
▁どういう	-10.6103
メイ	-10.6104
へんの	-10.6105
にはならん	-10.6105
中華	-10.6107
それに	-10.6108
▁ファ	-10.6109
はいる	-10.6111
▁何故	-10.6112
イズ	-10.6113
▁全く	-10.6113
の人間	-10.6113
ああいう	-10.6113
キラー	-10.6116
あかんの	-10.6116
てょ	-10.6118
軽い	-10.6125
▁さて	-10.6125
▁世界	-10.6125
てるから	-10.6126
ノン	-10.6127
食べたい	-10.613
かれて	-10.6131
▁フ	-10.6131
▁1000	-10.6134
はこれ	-10.6136
食事	-10.6138
か分からん	-10.6139
一岡	-10.6142
変わ	-10.6142
の前に	-10.6147
よくある	-10.6147
なアカン	-10.6147
▁それより	-10.6147
▁海	-10.6148
もうた	-10.6152
半年	-10.6155
つかない	-10.6156
id	-10.616
高級	-10.616
ング	-10.6163
避け	-10.6167
大差	-10.617
横浜の	-10.617
1/	-10.6173
今頃	-10.6173
しないで	-10.6173
素晴らしい	-10.6175
やろうか	-10.6176
化した	-10.6176
減ら	-10.6178
けた	-10.6179
楽天の	-10.618
なんとも	-10.6183
絡	-10.6183
wwwww	-10.6186
レベルで	-10.6186
がんばれ	-10.6187
ればええんや	-10.6189
▁最後の	-10.619
にすれば	-10.6194
理由が	-10.6198
感動	-10.6199
タコ	-10.6204
ならまだ	-10.621
で終わる	-10.6211
何故	-10.6212
ソ連	-10.6218
カッコ	-10.6218
もあるから	-10.6222
▁澤村	-10.6226
ってなんか	-10.6227
▁アカン	-10.6229
65	-10.623
おったら	-10.623
そん	-10.6233
の上	-10.6236
警	-10.6238
印	-10.6238
オリジナル	-10.6239
佐賀	-10.6239
つぶ	-10.6239
政府	-10.6239
医学部	-10.6239
雑談	-10.6239
効率	-10.624
告白	-10.624
永遠	-10.624
床田	-10.6241
集まって	-10.6242
福谷	-10.6242
ドラゴンズ	-10.6242
▁ワイ将	-10.6242
チキン	-10.6242
備	-10.6243
地雷	-10.6243
縛り	-10.6243
ーちゃん	-10.6244
オーバー	-10.6245
連発	-10.6245
ギター	-10.6245
増田	-10.6246
収入	-10.6246
球団の	-10.6248
なるほど	-10.6249
わり	-10.6252
ようなもん	-10.6253
してるの	-10.6256
ればええやん	-10.6257
en	-10.6257
ロード	-10.6259
凄かった	-10.6259
▁コ	-10.626
話を	-10.626
歌う	-10.6262
度に	-10.6264
暮らし	-10.6265
なにも	-10.6266
飲んだ	-10.6267
アス	-10.6268
いっても	-10.627
▁ヒント	-10.6272
終わってる	-10.6275
住んで	-10.6279
してみる	-10.6286
はやっぱり	-10.6286
うちは	-10.6293
やば	-10.6294
にしてる	-10.6294
んやないの	-10.6301
ましたわ	-10.6303
▁捕手	-10.6304
わけやし	-10.6304
震える	-10.6304
▁最初から	-10.6305
忘れてた	-10.6305
更に	-10.6306
を出す	-10.6307
貼る	-10.6311
みたいやね	-10.6312
終わらせ	-10.6313
持ってない	-10.6317
親に	-10.632
俺は	-10.6333
サファテ	-10.6333
した方が	-10.6335
ります	-10.6337
いいじゃん	-10.6337
お腹	-10.6338
ったけど	-10.6338
やらかした	-10.6342
た方が	-10.6348
てるの	-10.6352
▁2014	-10.6353
ニュー	-10.6355
ええやんけ	-10.6355
頑張ってる	-10.6358
が好きな	-10.636
仮	-10.6361
なんだから	-10.6363
▁又吉	-10.6365
ポチ	-10.6365
しなあ	-10.6365
面白く	-10.6367
抜か	-10.6369
カイ	-10.6371
間違いない	-10.6371
決めて	-10.6372
re	-10.6372
日本は	-10.6373
属	-10.6373
行かん	-10.6378
準	-10.638
支持	-10.638
しょう	-10.6383
▁メッセ	-10.6386
根拠	-10.6388
還	-10.6388
會澤	-10.6388
蓮	-10.6388
▁ジャ	-10.6388
予算	-10.6388
復調	-10.6388
定義	-10.639
間違え	-10.639
八木	-10.6391
系は	-10.6393
シュート	-10.6393
大臣	-10.6394
一杯	-10.6395
募集	-10.6396
マーチ	-10.6397
▁学校	-10.6398
見たかった	-10.6399
マニア	-10.6401
置く	-10.6402
▁エラー	-10.6405
生物	-10.6408
ファッ	-10.6409
ってまだ	-10.6412
ドラフトで	-10.6416
かえ	-10.6418
ヤマ	-10.6424
▁やっと	-10.6424
与え	-10.6426
イヤ	-10.6427
っとるで	-10.6428
▁日本は	-10.6428
▁初	-10.643
▁ぐう	-10.6434
の話や	-10.6434
いいね	-10.6435
▁関東	-10.6445
買え	-10.6446
▁わざわざ	-10.6447
くらいに	-10.6449
んです	-10.6451
まれる	-10.6452
な気がする	-10.6452
そう思う	-10.6453
のでセーフ	-10.6456
▁青	-10.6457
▁大山	-10.6459
もええんやで	-10.646
鑑	-10.6461
化して	-10.6461
帰ってきて	-10.6461
関係なく	-10.6462
の為に	-10.6464
▁夢	-10.6464
しちゃう	-10.6465
▁原口	-10.6467
かもね	-10.6471
引っ	-10.6477
開幕戦	-10.6479
しん	-10.6479
多いし	-10.648
の下	-10.6483
の間	-10.6486
スコ	-10.6488
きり	-10.6495
オール	-10.6495
住民	-10.6496
青柳	-10.6497
様は	-10.65
私は	-10.65
ケース	-10.6504
本人が	-10.6506
そんな事	-10.6507
▁トイレ	-10.6511
▁19	-10.6512
▁台湾	-10.6512
負けても	-10.6513
のおかげで	-10.6514
▁北條	-10.6514
くらいか	-10.6516
でやってる	-10.6516
▁若手	-10.652
田口	-10.6525
変わらない	-10.6527
は本当に	-10.6528
逃げる	-10.6528
炎	-10.6534
鶴	-10.6538
丼	-10.6539
▁山	-10.6539
使えん	-10.6539
▁ホーム	-10.6539
ませんわ	-10.6539
財	-10.6539
沈	-10.6539
隙	-10.6539
スポナビ	-10.6539
~	-10.6539
エリート	-10.6539
ドラえもん	-10.6539
チャンネル	-10.654
敗戦処理	-10.654
声が	-10.654
アマダー	-10.654
キャンベル	-10.654
バンデン	-10.654
ブルペン	-10.654
報告	-10.654
ﾘｭﾘｭﾘｭ	-10.654
解散	-10.6541
ツー	-10.6541
たびに	-10.6541
ハズレ	-10.6541
▁イスラエル	-10.6541
わざと	-10.6543
指定	-10.6544
試合は	-10.6546
言語	-10.6546
作業	-10.6547
へんやろ	-10.6547
プレ	-10.655
ってマ	-10.655
年収	-10.6551
横山	-10.6551
▁ホームラン	-10.6553
強化試合	-10.6555
と思ったんや	-10.6555
はわからん	-10.6555
骨折	-10.6556
▁二軍	-10.6558
▁嶋	-10.6559
探し	-10.6559
わけでもない	-10.656
だい	-10.6565
スレが	-10.6567
オブ	-10.6569
知りたい	-10.6569
の場合	-10.657
パーク	-10.657
スタメンで	-10.6574
返せ	-10.6576
安く	-10.6579
▁スーパー	-10.658
を作る	-10.6582
るような	-10.6583
こわい	-10.6583
ワンチャン	-10.6586
換	-10.6586
言われたら	-10.6587
その時	-10.6591
マリン	-10.6594
将軍	-10.6595
するぞ	-10.6598
使	-10.66
▁｜	-10.6602
▁なんでこんな	-10.6603
▁ソースは	-10.6608
あく	-10.6611
引退試合	-10.6614
ってもう	-10.6614
▁工藤	-10.6615
はあるけど	-10.6615
▁肩	-10.6616
って言われる	-10.6618
の鑑	-10.6619
届	-10.662
それはそれで	-10.6622
メガ	-10.6629
繋	-10.6629
求め	-10.6629
があったら	-10.6636
後ろに	-10.6641
かあ	-10.6646
時間が	-10.6647
すればええ	-10.6658
マエケン	-10.6658
入らん	-10.6662
▁キャッチャー	-10.6665
呪	-10.6667
▁コンビニ	-10.6668
大正義	-10.6669
´	-10.6671
大竹	-10.6675
ぼっち	-10.6679
甘え	-10.668
凄	-10.668
浦	-10.6683
してしまった	-10.6687
カウント	-10.6687
偽	-10.6689
写	-10.669
護	-10.6692
港	-10.6692
券	-10.6692
兼	-10.6692
省	-10.6692
〇	-10.6693
跡	-10.6693
▁審判	-10.6693
鏡	-10.6693
Ｖ	-10.6693
雲	-10.6693
はっきりわかんだね	-10.6693
猿	-10.6693
ダメージ	-10.6693
ゴジラ	-10.6693
ヤジ	-10.6694
始まった	-10.6694
ニコ生	-10.6695
桜井	-10.6695
発想	-10.6695
混ぜ	-10.6695
首位打者	-10.6695
少女	-10.6695
最高の	-10.6696
ギャ	-10.6696
払う	-10.6697
黙って	-10.6697
親父	-10.6698
しゃべ	-10.6698
明治	-10.6698
現場	-10.6699
グロ	-10.6699
正論	-10.67
やってて	-10.6701
平良	-10.6701
いいんじゃない	-10.6701
被害者	-10.6702
なんですかね	-10.6702
回表	-10.6706
オラ	-10.6712
おもしろい	-10.6713
高校野球	-10.6715
来い	-10.6716
取ってる	-10.6718
左の	-10.6719
信じる	-10.6719
苦しい	-10.6721
話は	-10.6722
▁アク禁	-10.6723
本多	-10.6723
追いつ	-10.6725
何回	-10.6727
乗る	-10.6731
を受け	-10.6733
点取れ	-10.6733
ガイ	-10.6733
良くて	-10.6735
阪神に	-10.6735
時まで	-10.6735
デスパ	-10.6739
内に	-10.674
▁対	-10.6744
優しく	-10.6745
選んだ	-10.6745
初戦	-10.675
生き残	-10.6752
取られ	-10.6752
ええなあ	-10.6755
かっこええ	-10.6759
盤	-10.676
ビン	-10.6761
スレ立てた	-10.6765
くんが	-10.6766
を見る	-10.6768
ファー	-10.677
ようや	-10.6773
し多少はね	-10.6774
代打で	-10.6776
消え	-10.6777
▁森福	-10.6779
ないんだよなあ	-10.6781
実家	-10.6782
もう一回	-10.6782
広島ファン	-10.6789
かかった	-10.679
言うほど	-10.6792
レース	-10.6794
ファイ	-10.6796
140	-10.6796
ちゅ	-10.6797
多いな	-10.6798
覚えてない	-10.68
▁監督	-10.68
四番	-10.6803
んじゃなくて	-10.6804
ってなに	-10.6806
作ってる	-10.681
▁ええやん	-10.681
んじゃないの	-10.681
39	-10.6813
なんだが	-10.6815
ありません	-10.6816
▁立浪	-10.6816
しまくって	-10.6824
伊藤	-10.6825
単純に	-10.6826
泣いて	-10.6826
ハッ	-10.6826
やったんやろ	-10.6828
やると	-10.6832
話題に	-10.6832
最近は	-10.6833
みると	-10.6838
▁安部	-10.6839
忍	-10.6842
なかったわ	-10.6844
富	-10.6846
したことない	-10.6846
知らんの	-10.6846
になるの	-10.6847
ヴ	-10.6847
婚	-10.6848
キャッチ	-10.6849
ワールド	-10.6849
秘	-10.6849
衣	-10.6849
具体的に	-10.6849
液	-10.6849
脂	-10.6849
コンバート	-10.6849
ペナント	-10.6849
任天堂	-10.6849
長谷川	-10.6849
＜	-10.685
ｧ	-10.685
描写	-10.685
メディア	-10.685
要求	-10.685
衝撃	-10.685
帰宅	-10.685
で終わり	-10.685
なんやろなぁ	-10.685
最速	-10.6852
だけやし	-10.6853
関根	-10.6854
チート	-10.6854
自称	-10.6855
落とさ	-10.6855
手段	-10.6857
東浜	-10.6857
回復	-10.6858
キャン	-10.6859
ダサい	-10.6861
国吉	-10.6861
けれど	-10.6862
思わ	-10.6867
▁バント	-10.6868
くね	-10.6872
すればいい	-10.6872
ッカ	-10.6872
方がええで	-10.6872
▁単純に	-10.6873
やもんな	-10.6874
▁石田	-10.6876
るよな	-10.6877
▁釣り	-10.6878
泣	-10.688
グル	-10.688
勝ちパ	-10.688
転が	-10.6882
えっ	-10.6882
配信	-10.6884
こいや	-10.689
そうやし	-10.6892
球界	-10.6893
同じこと	-10.6896
すんな	-10.69
っちゃった	-10.6901
っとけ	-10.6905
てたら	-10.691
生きる	-10.691
もあり	-10.691
▁広島の	-10.6912
調子悪い	-10.6912
▁ゲレーロ	-10.6913
染	-10.6914
先週	-10.6917
そこは	-10.6917
▁彼女	-10.6918
ないからな	-10.6918
風に	-10.6921
▁FA	-10.6923
そうで	-10.6924
やること	-10.6927
分からんけど	-10.6927
おハム	-10.6931
と違う	-10.6936
野上	-10.6939
納	-10.694
見れん	-10.6945
が言ってた	-10.6946
▁高卒	-10.6948
ディー	-10.6948
野球は	-10.6949
▁最後	-10.6952
蹴	-10.6955
老	-10.6959
次第で	-10.6961
読め	-10.6963
やるなら	-10.6967
-3	-10.6969
るんだ	-10.697
は今年	-10.6971
二塁	-10.6972
どうやろ	-10.6978
の結果	-10.698
▁ファー	-10.6981
に強い	-10.6989
キラ	-10.6989
すぎぃ	-10.699
wwwwwww	-10.6992
集め	-10.6993
タマ	-10.6993
おめでとう	-10.6994
由伸	-10.6996
岡崎	-10.6996
テレ	-10.6998
▁宮崎	-10.7
おらんかった	-10.7002
▁あくまで	-10.7003
ダメな	-10.7005
▁ネタ	-10.7006
▁例えば	-10.7007
◯	-10.7008
微	-10.7008
；	-10.7008
ｍ	-10.7008
wiki	-10.7008
縦	-10.7008
阻止	-10.7008
ページ	-10.7008
麻雀	-10.7008
昭和	-10.7009
しんどい	-10.7009
リズム	-10.7009
騒ぎ	-10.7009
来季	-10.7009
失策	-10.701
風邪	-10.701
公園	-10.701
首都	-10.701
匂い	-10.701
集団	-10.701
井端	-10.701
よろしくニキー	-10.701
する奴	-10.7011
フェンス	-10.7011
反論	-10.7012
手術	-10.7015
神経	-10.7016
正捕手	-10.7018
岡山	-10.7019
無難	-10.7021
誰かが	-10.7026
ってほしい	-10.7026
打線は	-10.7028
えん	-10.7029
ほうがいい	-10.703
やったことない	-10.7031
たけ	-10.7034
よりマシ	-10.7036
▁ワン	-10.7036
リーグの	-10.7037
▁若い	-10.7038
くらいやろ	-10.704
最大の	-10.704
シング	-10.7041
カップ	-10.7042
しとけ	-10.7043
らんかった	-10.7043
デザイン	-10.7044
中日ファン	-10.7046
化する	-10.7049
減った	-10.7054
なかったし	-10.7055
たって	-10.706
進め	-10.7062
圧倒的	-10.7066
いいのに	-10.7068
と比べ	-10.7068
じゃなかったっけ	-10.7069
スク	-10.7073
180	-10.7073
▁NHK	-10.7073
ですわよ	-10.7075
まして	-10.7077
諦めて	-10.7077
そのうち	-10.7082
利益	-10.7082
メル	-10.7082
だけやから	-10.7083
ってしまう	-10.7085
言われてる	-10.7086
いち	-10.7091
万くらい	-10.7095
あるやん	-10.7103
はいつも	-10.7103
固め	-10.7111
ac	-10.7112
んやけどね	-10.7113
になったんや	-10.7116
▁エリアン	-10.7122
男子	-10.7125
▁V	-10.7125
スピ	-10.7129
最初は	-10.7132
許	-10.7133
ググ	-10.7135
ウェイ	-10.7136
それまで	-10.7136
詳しくない	-10.7137
起きた	-10.7138
言っとる	-10.7149
拾	-10.715
ベイ	-10.7153
31	-10.7154
ゃ	-10.7157
歩いて	-10.7158
多すぎて	-10.7162
とは言え	-10.7163
ライダー	-10.7163
▁四	-10.7164
亡	-10.7164
雇	-10.7167
イスラエル	-10.7168
様の	-10.7168
維持	-10.7169
▁夏	-10.7169
剤	-10.7169
支援	-10.7169
餌	-10.7169
貨	-10.7169
ｋ	-10.7169
ファンタジー	-10.717
漁	-10.717
ならともかく	-10.717
企画	-10.717
▁マジレスすると	-10.717
テニス	-10.717
攻略	-10.717
予選	-10.717
グラウンド	-10.7171
マギー	-10.7171
挑戦	-10.7171
付き合い	-10.7171
対抗	-10.7172
歴代	-10.7172
集まる	-10.7173
基地	-10.7173
藤川	-10.7174
楽しめ	-10.7174
ごめんなさい	-10.7175
導入	-10.7175
ノーヒット	-10.7175
ことで	-10.7175
▁もともと	-10.7175
いたい	-10.7176
どうしようもない	-10.7176
いざ	-10.7177
▁K	-10.7179
自動	-10.7179
競	-10.7183
が上	-10.7184
何歳	-10.7187
やからなあ	-10.7191
の意見	-10.7191
叩いて	-10.7192
MM	-10.7192
▁こないだ	-10.7193
モリ	-10.7193
目指して	-10.7195
は強い	-10.7199
おるん	-10.7201
負け越し	-10.7202
着て	-10.7202
▁そのうち	-10.7203
それとも	-10.7204
後は	-10.7206
すごかった	-10.7207
CD	-10.721
しまって	-10.7211
ってそんな	-10.7215
するために	-10.7217
覚	-10.7219
となると	-10.7222
▁中崎	-10.7222
少なすぎ	-10.7222
人間の	-10.723
▁無理	-10.723
疲れて	-10.723
してたから	-10.7231
入らない	-10.7232
描いた	-10.7233
ここは	-10.7235
も良い	-10.7237
▁人間	-10.7238
▁素晴らしい	-10.724
売れる	-10.7241
使われ	-10.7245
ないんだ	-10.7245
▁明日も	-10.7252
無いやろ	-10.7252
そうだけど	-10.7262
貧乏	-10.7263
してるやつ	-10.7264
▁同	-10.7265
ええと思うで	-10.7265
▁なんだかんだ	-10.7266
on	-10.7267
はあんまり	-10.7267
次に	-10.7268
32	-10.7269
打ったら	-10.7272
昨日の	-10.7273
圧倒的に	-10.7274
▁青木	-10.7276
違	-10.7278
抑えた	-10.7283
に似てる	-10.7284
諦める	-10.7285
残す	-10.7285
立った	-10.7289
覚える	-10.7291
かた	-10.7292
スレ建て	-10.7292
読めない	-10.7293
もないし	-10.7295
してくれた	-10.7296
が出た	-10.7296
マネ	-10.7298
そして	-10.7299
これ以上	-10.7304
ゲーム差	-10.7304
できてる	-10.7305
▁とにかく	-10.7305
回り	-10.7306
▁延長	-10.7309
考	-10.7314
聞いたことある	-10.7317
いるし	-10.7317
予	-10.7318
資	-10.7324
はマジで	-10.7325
悪いこと	-10.7325
帝	-10.7326
集めて	-10.7327
▁ついでに	-10.7327
秀	-10.7329
独立	-10.7331
囲	-10.7333
Ｒ	-10.7333
鍵	-10.7333
，	-10.7333
・｀)	-10.7333
羅	-10.7333
シフト	-10.7333
窓	-10.7333
拓也	-10.7334
規模	-10.7334
悲惨	-10.7334
グッズ	-10.7334
約束	-10.7334
オッサン	-10.7334
早めに	-10.7334
こっから	-10.7334
始まって	-10.7334
帰ってきた	-10.7335
続投	-10.7335
調べた	-10.7335
自覚	-10.7336
改めて	-10.7336
ドラゴンボール	-10.7336
態度	-10.7336
池田	-10.7336
職業	-10.7336
伝説	-10.7337
が今	-10.7337
残塁	-10.7337
レイプ	-10.7338
帝国	-10.734
話して	-10.7342
ラク	-10.7342
やってほしい	-10.7342
ナゴド	-10.7343
ようやく	-10.7343
走れ	-10.7344
流石	-10.7346
かんじ	-10.7347
突き	-10.7347
は全く	-10.7348
言われても	-10.7348
られたら	-10.7351
デート	-10.7352
.9	-10.7352
うる	-10.7355
大砲	-10.7355
よさそう	-10.7355
付き合って	-10.7355
しやすい	-10.7357
知らんかった	-10.7357
▁桑原	-10.7357
やと思うけど	-10.7358
ほー	-10.7361
この間	-10.7363
それだけ	-10.7364
はどんな	-10.7366
出そう	-10.737
神様	-10.737
その他	-10.737
▁南	-10.737
くらいまで	-10.7371
になるか	-10.7374
ちゃんが	-10.7376
こんだけ	-10.7376
替	-10.7382
やるんや	-10.7386
98	-10.7388
のになぁ	-10.7388
どうしよう	-10.7388
回は	-10.739
▁まずは	-10.7396
一流	-10.7397
に決まってる	-10.7399
BB	-10.7403
いいの	-10.7406
どうなるんや	-10.7407
のおっさん	-10.7408
イッチに	-10.7412
ゆる	-10.7413
ほしかった	-10.7413
セイ	-10.7417
状態で	-10.7423
120	-10.7423
▁真	-10.7424
勝ったら	-10.7424
▁完全に	-10.7426
意外	-10.7433
が原因	-10.7433
いつでも	-10.7438
番は	-10.7438
マリ	-10.7439
うつ	-10.7439
クト	-10.744
同意	-10.744
▁昨日も	-10.744
苦手な	-10.7443
OB	-10.7446
ワード	-10.7447
ベン	-10.7451
あるなら	-10.7451
▁クライン	-10.7451
アク	-10.7452
とか言われて	-10.7455
▁毎年	-10.7457
今井	-10.7459
▁本来	-10.7461
いるから	-10.7462
▁薮田	-10.7463
過去の	-10.7465
恥ずかし	-10.747
即戦力	-10.747
振る	-10.7475
の勝ち	-10.7475
やってみ	-10.7476
………	-10.7478
自分から	-10.7479
▁煽り	-10.7481
してなかった	-10.7482
監督が	-10.7484
無いから	-10.7484
来年も	-10.749
可能性もある	-10.749
力を	-10.749
当てて	-10.7495
慶	-10.7498
国際	-10.7498
菜	-10.7498
剥	-10.75
候	-10.75
宇	-10.75
推薦	-10.75
猛虎弁	-10.75
肘	-10.75
Ｔ	-10.75
鍋	-10.75
課題	-10.75
傾向	-10.75
ブレイク	-10.7501
認定	-10.7501
いまいち	-10.7503
オーダー	-10.7503
ギャグ	-10.7503
所属	-10.7503
らい	-10.7503
▁マギー	-10.7504
ヤクザ	-10.7504
並べ	-10.7504
視聴率	-10.7505
支配下	-10.7505
プロスピ	-10.7505
間違って	-10.7506
下さい	-10.7506
石井	-10.7508
▁小学生	-10.7508
すか	-10.7508
まあまあ	-10.7512
▁大和	-10.7512
下位打線	-10.7512
神社	-10.7513
つまらない	-10.7513
守備範囲	-10.7516
ひとり	-10.7522
▁スレタイ	-10.7522
活躍した	-10.7522
劣	-10.7525
待ってる	-10.7525
だゾ	-10.7532
の友達	-10.7533
▁まとめ	-10.754
作家	-10.7541
松中	-10.7542
レット	-10.7544
打てん	-10.7544
ルート	-10.7544
▁サン	-10.7546
初球	-10.7547
時代は	-10.7547
ダメだ	-10.7547
るんかな	-10.755
無理やり	-10.7551
世界で	-10.7552
▁春	-10.7552
釣れ	-10.7553
に来	-10.7555
りました	-10.7555
ヤン	-10.7556
上原	-10.756
押し付け	-10.7562
▁マッマ	-10.7564
一年目	-10.7571
意味わからん	-10.7572
言うたら	-10.7577
今年も	-10.7579
▁高橋	-10.7581
怪我した	-10.7582
パッと	-10.7582
何年	-10.7584
勉強して	-10.7584
切れる	-10.7585
ようになって	-10.7586
るところ	-10.7588
コロ	-10.7589
風呂入って	-10.7589
の話題	-10.7592
たいけど	-10.7595
みたいやけど	-10.7599
あああああああああ	-10.7599
グラブ	-10.7599
と思うが	-10.7604
あんた	-10.7604
はどうなんや	-10.7607
大事に	-10.761
とったら	-10.7615
ごろ	-10.7617
において	-10.7622
▁外国人	-10.7624
アラ	-10.7628
の間違い	-10.7635
▁パリーグ	-10.7637
le	-10.7637
偉	-10.764
巡	-10.7641
▁どうやって	-10.7641
国が	-10.7645
ホームラン打った	-10.7647
まくってた	-10.7648
いわれ	-10.7649
か何か	-10.7651
たのか	-10.7651
ばら	-10.7658
引いた	-10.7658
▁ナゴド	-10.766
▁中学	-10.7661
ニキら	-10.7661
凄く	-10.7662
チラ	-10.7663
翼	-10.7663
▁和田	-10.7664
はまあ	-10.7665
アクション	-10.7665
冷え	-10.7665
菊	-10.7667
創	-10.7668
祖	-10.7668
紅	-10.7668
群	-10.7668
スタジアム	-10.7669
浩	-10.7669
ﾅ	-10.767
皿	-10.767
奢	-10.767
肥	-10.767
駒	-10.767
従	-10.767
販売	-10.767
まみれ	-10.767
お客さん	-10.767
チェンジアップ	-10.767
プライド	-10.767
帽子	-10.7671
防衛	-10.7671
テンション	-10.7671
もしかしたら	-10.7671
焼肉	-10.7672
書き込んで	-10.7672
て草生える	-10.7673
。。。	-10.7673
格好	-10.7673
結論	-10.7673
寺島	-10.7673
量産	-10.7675
アメ	-10.7676
なんやけどな	-10.7676
戦目	-10.7677
転生	-10.7677
明日の	-10.7679
▁レアード	-10.768
は正直	-10.7681
いれ	-10.7683
は全部	-10.7684
▁たしか	-10.7686
クジ	-10.7686
軍に	-10.7687
が多いから	-10.7688
鳥取	-10.7688
りして	-10.7689
あるからな	-10.7689
パスタ	-10.769
最終戦	-10.7691
好きやった	-10.7695
ダム	-10.7696
it	-10.77
も何も	-10.77
みたいで	-10.7704
離れて	-10.7705
したのか	-10.7706
▁日本語	-10.771
アマ	-10.771
休日	-10.7712
の価値	-10.7713
阪神が	-10.7714
分かれ	-10.7714
っとるんや	-10.7714
♡♡♡	-10.7717
なんだかんだ	-10.7718
が全く	-10.7722
びっくり	-10.7722
まんさん	-10.7723
できてない	-10.773
▁サファテ	-10.7732
と思えば	-10.7733
超える	-10.7735
一軍に	-10.7736
とかそういう	-10.7736
弱点	-10.7737
イイ	-10.7738
しかも	-10.7738
に使う	-10.7738
育て	-10.7739
構	-10.7742
▁どっちか	-10.7743
できるんか	-10.7743
▁これって	-10.7745
たろ	-10.7746
取れた	-10.7749
なかったんや	-10.775
なんやっけ	-10.7753
▁有能	-10.7753
って結構	-10.7754
▁オー	-10.7755
▁高校生	-10.7758
ちゃんの	-10.7758
▁４	-10.7766
かったけど	-10.7768
es	-10.777
だと思ってた	-10.7771
最終回	-10.7772
▁こっちは	-10.7774
くなりそう	-10.7776
起きて	-10.7778
イル	-10.7779
おこ	-10.7779
▁意外と	-10.7779
▁中井	-10.778
▁ライト	-10.7783
におる	-10.7783
多そう	-10.7786
おらんし	-10.7786
やからしゃーない	-10.7787
合ってる	-10.7788
してくれて	-10.7793
ニキが	-10.7796
合った	-10.7797
前回	-10.7798
ってて草	-10.7799
飲め	-10.7799
見られ	-10.7799
ってどうなん	-10.7803
▁家	-10.7808
燃える	-10.781
ミニ	-10.781
孫	-10.7816
リオ	-10.7816
▁これも	-10.7816
越えて	-10.7816
艦	-10.7824
らんで	-10.7826
▁ち	-10.7826
。」	-10.7827
▁近藤	-10.7828
軸	-10.7831
見えて	-10.7832
んぞ	-10.7833
迷惑かけ	-10.7835
名乗	-10.7836
しすぎて	-10.7838
奈	-10.7839
富士	-10.784
章	-10.784
蔵	-10.7841
114514	-10.7842
ストーカー	-10.7842
Ｅ	-10.7842
取り敢えず	-10.7842
見とけよ	-10.7842
岩隈	-10.7842
手のひら	-10.7842
▁つーか	-10.7842
クリスマス	-10.7842
〇〇	-10.7842
飛翔	-10.7842
黄色	-10.7843
変換	-10.7843
確変	-10.7843
ショック	-10.7843
解除	-10.7843
目標	-10.7844
オチ	-10.7846
バグ	-10.7847
工場	-10.7848
取れて	-10.7849
にもよる	-10.7849
中堅	-10.785
なんだろう	-10.7851
沢山	-10.7851
とこに	-10.7851
外崎	-10.7856
やろし	-10.7856
38	-10.7856
横田	-10.7857
いかに	-10.7857
るだけで	-10.7858
ものが	-10.7858
2017	-10.786
が気になる	-10.7861
しとけば	-10.7862
かき	-10.7865
まとも	-10.7865
呼んだ	-10.7867
親が	-10.7868
低め	-10.7869
殴	-10.7872
優勝する	-10.7875
こなみ	-10.7876
大変な	-10.7876
2011	-10.7878
やらせ	-10.7878
かー	-10.7882
通して	-10.7883
んでしょ	-10.7884
守備も	-10.7886
くさい	-10.7889
IS	-10.7889
の人は	-10.789
見とる	-10.789
かったな	-10.7891
▁火	-10.7892
使い方	-10.7893
▁初回	-10.7894
燃え	-10.7896
無くなる	-10.7896
みたいやし	-10.7897
2015	-10.7902
はこの	-10.7906
したのに	-10.7911
なんであんな	-10.7911
それこそ	-10.7912
行っても	-10.7915
笑って	-10.7916
やったぜ	-10.7919
中々	-10.7919
のための	-10.7923
▁結果	-10.7927
聞け	-10.7927
初回	-10.7931
んでも	-10.7931
阪	-10.7931
おかしく	-10.7935
wwwwwwww	-10.7936
▁最初の	-10.7939
が低い	-10.7944
人いる	-10.7946
になれば	-10.7946
層が	-10.7958
▁実際に	-10.7958
練習試合	-10.796
後で	-10.7962
明日も	-10.7963
試合を	-10.7967
MA	-10.7969
潰し	-10.7971
クライン	-10.7973
過ぎた	-10.7973
▁2015	-10.7974
▁今更	-10.7975
来てくれ	-10.798
ホン	-10.7981
苦し	-10.7981
専スレ	-10.7983
▁後は	-10.7985
でー	-10.7989
▁向こう	-10.799
人間は	-10.799
が勝つ	-10.7996
スパイ	-10.7996
なんかね	-10.7996
してたわ	-10.7997
あんの	-10.7998
ですよね	-10.8005
▁それだけ	-10.8006
則	-10.8007
畑	-10.8007
ませんか	-10.8015
のかしら	-10.8015
側に	-10.8015
九	-10.8016
裕	-10.8017
呉	-10.8017
執	-10.8017
;	-10.8017
選球眼	-10.8017
爺	-10.8017
オリンピック	-10.8017
妖怪	-10.8017
恐ろしい	-10.8017
三ツ間	-10.8017
丈	-10.8017
斎藤	-10.8018
歓喜	-10.8018
俊介	-10.8018
過疎	-10.8018
君の名は	-10.8018
複雑	-10.8018
意味不明	-10.8019
ヘッド	-10.8019
ライバル	-10.8019
ユニフォーム	-10.802
ババア	-10.802
した方がええ	-10.802
二度と	-10.802
▁中日は	-10.8021
あまりに	-10.8021
太陽	-10.8021
論破	-10.8021
高梨	-10.8021
インコース	-10.8024
だと思ってる	-10.8025
▁色々	-10.8025
新宿	-10.8025
スキル	-10.8026
コード	-10.8027
▁次スレ	-10.8028
りやすい	-10.803
▁こマ	-10.8031
勝手	-10.8037
多数	-10.8037
られてた	-10.8039
スレの	-10.8039
っきり	-10.804
横浜ファン	-10.8041
ばええやん	-10.8044
ゲン	-10.8044
デカい	-10.8045
よかったわ	-10.8047
するのも	-10.8049
プロ野球選手	-10.8049
エビ	-10.8054
わら	-10.8057
甲子園で	-10.8057
えらい	-10.806
全然違う	-10.8062
しゅ	-10.8064
▁川崎	-10.8065
からへーきへーき	-10.8069
▁松	-10.807
文学	-10.8076
イギリス	-10.8076
▁井納	-10.8077
▁来年は	-10.8078
少なくとも	-10.8081
円くらい	-10.8084
上林	-10.8086
の出番	-10.8087
▁原	-10.8088
ええから	-10.8089
大型	-10.8092
出来れば	-10.8093
怪我して	-10.8093
外して	-10.8095
やられた	-10.8097
１００	-10.8104
の穴	-10.8108
するしかない	-10.8109
有り	-10.811
▁画像	-10.8111
んやなって	-10.8115
応	-10.8124
やろけど	-10.8129
本番	-10.8131
許せ	-10.8139
自分は	-10.8141
▁学生	-10.8144
我慢して	-10.8145
表示	-10.8145
できたら	-10.8146
る感じ	-10.8148
おったな	-10.8155
割りと	-10.8162
以前に	-10.8164
みよう	-10.8165
数年	-10.8166
▁おじいちゃん	-10.817
できなかった	-10.817
挙	-10.8173
払って	-10.8175
友達と	-10.8175
▁マジか	-10.818
考えれば	-10.8181
池	-10.8181
シャー	-10.8181
オープン	-10.8184
どうやったら	-10.8185
許される	-10.8186
クイズ	-10.8192
荷	-10.8192
庫	-10.8195
▁どんだけ	-10.8195
Ｍ	-10.8196
松井雅人	-10.8196
ファインプレー	-10.8196
下水流	-10.8196
ブレイシア	-10.8196
妻	-10.8196
童	-10.8196
塾	-10.8196
是非	-10.8196
ジョーダン	-10.8197
うなぎ	-10.8197
派遣	-10.8197
荒波	-10.8197
中継ぎで	-10.8197
に自信ニキ	-10.8199
重視	-10.8199
素敵	-10.82
日大	-10.8201
速度	-10.8203
デカイ	-10.8204
いってた	-10.8206
おいしい	-10.8209
子ども	-10.821
艦これ	-10.821
の画像	-10.8211
結果論	-10.8213
▁ソース	-10.8213
ジョン	-10.8214
な模様	-10.8214
ダンス	-10.8215
どんくらい	-10.8215
334	-10.8216
見事	-10.8218
いだ	-10.8218
進んで	-10.8218
ミート	-10.8219
衰え	-10.8221
分で	-10.8222
マナー	-10.8224
きれい	-10.8227
マジレス	-10.8227
の選手が	-10.8228
に入れ	-10.8232
ムシ	-10.8232
マスター	-10.8235
▁まるで	-10.8237
▁ちな鷹	-10.8238
森野	-10.8239
要らん	-10.8239
っぽく	-10.8242
取られる	-10.8243
気にする	-10.8243
見れて	-10.8245
ドロ	-10.8245
マリオ	-10.8252
モス	-10.8253
おかしな	-10.8255
心が	-10.8255
してくれや	-10.8258
西田	-10.8261
ないこと	-10.8261
くれれば	-10.8264
というのは	-10.8265
ないよ	-10.8265
きます	-10.8266
そうだった	-10.8267
▁今年も	-10.8268
球団が	-10.8271
全力で	-10.8272
とは思わん	-10.8275
の攻撃	-10.8278
回の	-10.828
は厳しい	-10.8281
だからこそ	-10.8284
恵まれ	-10.8285
地元の	-10.8286
入ってない	-10.8288
♥♥♥	-10.8289
コマ	-10.8289
感想	-10.8292
▁ちな巨	-10.8295
はあんま	-10.8298
今江	-10.8298
▁おまえ	-10.8299
▁どすこい	-10.83
▁ストレート	-10.8303
二回	-10.8304
三人	-10.8304
そうなん	-10.8306
年ぶり	-10.8306
とは思うけど	-10.8306
三上	-10.8307
ごとに	-10.8308
たいンゴ	-10.8308
No	-10.831
すり	-10.831
引いて	-10.831
はほんま	-10.8313
プル	-10.8313
ええの	-10.8315
放出	-10.8317
換え	-10.8319
あるのに	-10.8322
ブー	-10.8323
踏	-10.8324
ようわからん	-10.8329
も大概	-10.8331
駆	-10.8338
▁今宮	-10.8339
あたりが	-10.8341
は関係ない	-10.8342
ない限り	-10.8348
ないかな	-10.835
！！！！！！	-10.8352
気がするけど	-10.8352
..	-10.8353
▁いっそ	-10.8354
守り	-10.8356
いいとこ	-10.8357
どういうことや	-10.8358
扱	-10.8358
他にも	-10.8359
▁わいの	-10.836
優勝した	-10.8363
ような気がする	-10.8363
様が	-10.8365
85	-10.8367
▁猫	-10.837
欄	-10.8371
▁負け	-10.8374
辞めて	-10.8374
呼べ	-10.8375
床	-10.8375
▁キューバ	-10.8377
渋	-10.8377
労	-10.8377
Ｆ	-10.8377
拳	-10.8377
youtube	-10.8378
メジャーリーガー	-10.8378
ステージ	-10.8378
帳	-10.8378
自転車	-10.8378
キャプテン	-10.8378
氷	-10.8378
YouTube	-10.8378
巣	-10.8378
検査	-10.8378
落ち着いて	-10.8378
楽しむ	-10.8378
録画	-10.8378
納豆	-10.8378
スーツ	-10.8378
ツーベース	-10.8379
義務	-10.8379
鶴岡	-10.8379
完結	-10.8379
あったし	-10.8379
ニャ	-10.8379
グリーン	-10.8379
モデル	-10.8379
目覚め	-10.838
知らなかった	-10.838
ぐう聖	-10.8382
▁ホークス	-10.8382
重信	-10.8383
交通	-10.8383
るとか	-10.8383
ワイン	-10.8383
遊ぶ	-10.8384
起きる	-10.8385
ツッツ	-10.8385
見ながら	-10.8385
帰ってくる	-10.8386
TBS	-10.8386
予感	-10.8388
ないんやな	-10.8388
シャツ	-10.8388
分けて	-10.8389
だしな	-10.8391
捕球	-10.8391
かれた	-10.8391
入学	-10.8392
迷う	-10.8392
白人	-10.8393
勇気	-10.8394
ったこと	-10.8396
煽られ	-10.8397
置き	-10.8397
なれる	-10.8397
と同	-10.8398
ッカー	-10.8399
スパ	-10.84
0%	-10.8401
微妙に	-10.8402
▁ロシア	-10.8403
は異常	-10.8404
▁金子	-10.8405
600	-10.8405
▁もはや	-10.8407
落とし	-10.8412
▁ハゲ	-10.8414
ええんやけど	-10.8414
可愛	-10.8415
続いて	-10.8415
▁来週	-10.8416
せえへん	-10.8416
二重	-10.8416
わいが	-10.8418
▁その後	-10.8418
第三	-10.842
と言われる	-10.8421
他人の	-10.8422
橋本	-10.8423
たらええ	-10.8424
思ったけど	-10.8425
はあまり	-10.8426
中日の	-10.8428
するべき	-10.8429
いなくなる	-10.8431
AS	-10.8431
▁田口	-10.8432
……」	-10.8435
あってる	-10.8435
じゃないし	-10.8437
貼れ	-10.8445
かけてる	-10.8445
仮に	-10.845
が来た	-10.8454
あらへん	-10.8455
デモ	-10.8455
高くて	-10.846
あるんやで	-10.8461
ちゃうかな	-10.8469
動いて	-10.847
はわかるけど	-10.8475
妙	-10.8477
を見た	-10.8477
エス	-10.8482
64	-10.8484
いかんの	-10.8484
っ子	-10.8488
呼ばれて	-10.8491
聞いたら	-10.8491
おまえら	-10.8492
最も	-10.8494
▁風呂	-10.8499
▁ワイもや	-10.8499
理解して	-10.8501
▁あいつら	-10.8503
出せば	-10.8505
おるか	-10.8505
呼	-10.8506
安心して	-10.8508
折	-10.8509
つま	-10.8514
疲れた	-10.8514
エナ	-10.8515
赤い	-10.8524
分かるけど	-10.8528
何回も	-10.8529
▁初めて	-10.8529
ミリ	-10.8531
いそう	-10.8532
悪いけど	-10.8532
がわからん	-10.8533
今月	-10.8535
ライフ	-10.8537
あー	-10.8538
▁福井	-10.8539
ワンチャンある	-10.8541
材	-10.8544
▁DeNA	-10.8544
って話や	-10.855
ガチの	-10.8551
どうこう	-10.8553
手で	-10.8556
選手も	-10.8557
梅	-10.8558
康	-10.8559
坊	-10.8561
博	-10.8561
悟	-10.8561
如	-10.8563
いるのか	-10.8563
郷	-10.8563
スタッフ	-10.8563
疲労	-10.8563
バッテリー	-10.8563
潔	-10.8563
ｹ	-10.8563
召	-10.8563
遂	-10.8563
鹿児島	-10.8563
潜	-10.8563
舌	-10.8563
儀	-10.8563
磨	-10.8563
ﾙ	-10.8563
(*^	-10.8563
RPG	-10.8563
冷凍	-10.8563
共産党	-10.8563
宮國	-10.8563
周辺	-10.8564
決まり	-10.8564
盛り上がる	-10.8565
助かる	-10.8565
ランダム	-10.8565
雄星	-10.8565
シリアコ	-10.8565
漬け	-10.8566
菊地	-10.8566
テンポ	-10.8567
ショウ	-10.8567
ローン	-10.8567
ご自慢	-10.8567
退場	-10.8568
まとめサイト	-10.8569
リーダー	-10.8569
潰れ	-10.8569
許す	-10.857
つらい	-10.857
トーク	-10.857
どうするんや	-10.8571
被安打	-10.8572
驚いた	-10.8572
カニ	-10.8574
ひで	-10.8574
大量に	-10.8575
大事や	-10.8576
▁いやいや	-10.8577
確実	-10.8583
陽キャ	-10.8583
てしまう	-10.8585
遠く	-10.8586
クー	-10.8587
▁違う	-10.8594
フィー	-10.8595
おもろかった	-10.8596
高城	-10.8596
天下	-10.8598
小山	-10.86
いっ	-10.8602
あたりは	-10.8602
ズル	-10.8603
▁無能	-10.8604
読める	-10.8604
ハメ	-10.8606
大丈夫や	-10.8608
トレ	-10.861
▁風	-10.8612
政治家	-10.8612
投げてた	-10.8613
の気持ち	-10.8615
継続	-10.8617
ウルフ	-10.8618
▁他球団	-10.8619
しちゃった	-10.8623
所に	-10.863
47	-10.863
っていつ	-10.8632
前まで	-10.8634
に興味	-10.8634
▁あんま	-10.8636
推し	-10.864
綺麗な	-10.864
酷かった	-10.8642
でええわ	-10.8643
てるけど	-10.8644
ウッ	-10.8645
頼むわ	-10.865
聴いて	-10.8653
入ってた	-10.8655
通用	-10.8655
TA	-10.8656
怖かった	-10.8657
かと思ったら	-10.8658
▁ほなら	-10.866
先発で	-10.866
見つけた	-10.8663
▁飯	-10.8666
なれば	-10.8667
描け	-10.867
勘弁	-10.8671
のネタ	-10.8679
金を	-10.8681
処	-10.8687
戦士	-10.869
▁出塁率	-10.869
とは言わん	-10.8693
る人	-10.8696
がすごい	-10.8701
知らんわ	-10.8703
戻ってきた	-10.8705
とけば	-10.871
▁女の子	-10.8711
ほしいな	-10.8711
面白	-10.8711
`	-10.8712
壊す	-10.8712
Wi	-10.8716
▁そいつ	-10.8724
はどうなん	-10.8725
してまう	-10.8725
から来た	-10.8728
の件	-10.8729
マイル	-10.873
ないじゃん	-10.8731
▁うちは	-10.8732
くっさ	-10.8733
回も	-10.8738
会見	-10.8739
ボコボコ	-10.8739
を取り	-10.8739
のおかげ	-10.874
と思うけどな	-10.874
祭り	-10.8741
責め	-10.8743
宅	-10.8747
煽	-10.8748
模	-10.8748
▁なろう	-10.8749
脇	-10.875
就	-10.875
に弱い	-10.8751
占	-10.8751
停	-10.8751
ビデオ	-10.8751
京セラ	-10.8752
没	-10.8752
ペゲーロ	-10.8752
ひたすら	-10.8752
ビハインド	-10.8752
]	-10.8752
ボーナス	-10.8752
遥	-10.8752
[	-10.8752
錦織	-10.8752
概念	-10.8752
幽霊	-10.8752
濃厚	-10.8752
唐突	-10.8752
ならまだしも	-10.8752
守護神	-10.8752
であろう	-10.8753
▁DH	-10.8753
腹立つ	-10.8753
津波	-10.8754
転職	-10.8754
ゆとり	-10.8754
周平	-10.8754
間に合う	-10.8754
よそ	-10.8754
QS	-10.8755
比較的	-10.8755
ッサ	-10.8755
▁内野	-10.8755
マルチ	-10.8755
成立	-10.8758
わかんない	-10.8759
住所	-10.876
買い物	-10.8761
呆れ	-10.8762
おんちゃん	-10.8764
▁前スレ	-10.8765
古田	-10.8767
王道	-10.8767
涙目	-10.8768
女に	-10.8769
西岡	-10.8769
出演	-10.877
近所	-10.877
ガッキー	-10.8771
の時も	-10.8774
アカンのか	-10.8776
いつの間にか	-10.8777
すぎるわ	-10.8779
は完全に	-10.8783
連打	-10.8785
わけないやん	-10.8788
引っ張って	-10.8788
たからな	-10.879
頃の	-10.8791
て草生えた	-10.8791
今週	-10.8791
広げ	-10.8792
▁マエケン	-10.8795
アド	-10.8795
ウル	-10.8799
すりゃ	-10.8801
戦い	-10.8805
ｗｗｗｗｗ	-10.8807
界の	-10.8813
リュ	-10.8815
▁まじか	-10.8816
▁勝手に	-10.8819
だれか	-10.8819
シュー	-10.882
ララ	-10.8823
のキャラ	-10.8825
どうやった	-10.8826
欲しいな	-10.8828
に草	-10.8829
IN	-10.8829
▁佐々木	-10.883
ようとする	-10.8831
強化	-10.8832
プロレス	-10.8833
する気	-10.8836
煽って	-10.8836
側が	-10.8836
ほうがええで	-10.8836
あて	-10.8837
にしたい	-10.8838
ッキ	-10.8841
▁レフト	-10.8844
吸い	-10.8846
▁ランナー	-10.8846
がわからない	-10.8847
ウホ	-10.8847
が普通	-10.8853
通用する	-10.886
▁モ	-10.8868
から多少はね	-10.887
ごめん	-10.8871
捨てる	-10.8871
直前	-10.8871
点を	-10.8872
足りん	-10.8872
としての	-10.8873
AA	-10.8876
▁ヤ	-10.8878
残して	-10.8881
アカ	-10.8882
回数	-10.8883
思い出す	-10.8886
申	-10.889
見てきた	-10.8892
ばり	-10.8894
！｣	-10.8895
的にも	-10.8896
わかるやろ	-10.8903
ねーわ	-10.8904
していく	-10.8907
al	-10.8908
▁神宮	-10.8908
は必要	-10.8911
してんねん	-10.8912
釣	-10.8914
引退した	-10.8914
開いて	-10.8916
良かったわ	-10.8921
の戦い	-10.8921
1.5	-10.8921
隣の	-10.8923
能見	-10.8926
辞める	-10.8929
▁一緒に	-10.8933
せんかった	-10.8935
規	-10.8936
評判	-10.8938
雷	-10.8938
★	-10.8943
があるなら	-10.8943
踊	-10.8944
も含めて	-10.8944
お嬢様	-10.8944
ゴキブリ	-10.8944
とっくに	-10.8944
垢	-10.8944
稀	-10.8944
尊敬	-10.8944
交渉	-10.8944
将棋	-10.8944
依存	-10.8944
草も生えない	-10.8944
競争	-10.8944
若干	-10.8945
どう考えても	-10.8945
予約	-10.8945
いい加減にしろ	-10.8945
違反	-10.8945
ってなんだよ	-10.8945
英雄	-10.8945
▁悲しいなあ	-10.8946
モンハン	-10.8946
フォロー	-10.8946
ほんとひで	-10.8946
応援団	-10.8948
事務所	-10.8948
75	-10.8949
るために	-10.8951
軍団	-10.8951
▁去年も	-10.8953
クール	-10.8953
マジック	-10.8954
大地	-10.8956
ジャップ	-10.8956
▁社会人	-10.8956
▁立岡	-10.8956
正面	-10.8957
青森	-10.8957
全体的に	-10.8958
か知らんけど	-10.8958
▁申し訳ないが	-10.8958
哲	-10.8959
時々	-10.896
年生	-10.8961
論外	-10.8961
ps	-10.8963
聞いてる	-10.8965
してないから	-10.8969
ポスト	-10.897
サンド	-10.897
なんなんや	-10.8972
しへーきへーき	-10.8976
ウォ	-10.8977
▁せやった	-10.8978
さすが	-10.8978
越し	-10.8978
ちび	-10.8979
▁もう少し	-10.8981
ミスター	-10.8985
本当の	-10.8986
内の	-10.8989
▁大正義	-10.899
▁大丈夫	-10.8994
言うけど	-10.8998
800	-10.8998
語り	-10.9001
▁来年の	-10.9002
ここから	-10.9004
いえ	-10.9004
大した	-10.9008
トリック	-10.9008
流れて	-10.9009
三重	-10.9011
やれや	-10.9012
ってだけで	-10.9014
隠れ	-10.9015
▁まじで	-10.9017
抑えられ	-10.9018
会う	-10.9019
なんでこんな	-10.9024
と結婚	-10.9026
してる奴	-10.9026
迎え	-10.9028
応援してる	-10.9029
そりゃ	-10.903
１２	-10.9031
何人か	-10.9031
交流戦で	-10.9031
▁勉強	-10.9032
恵	-10.9039
あったわ	-10.904
▁メヒア	-10.9043
らしいぞ	-10.9045
てしまった	-10.9048
……？	-10.9048
サム	-10.9049
山中	-10.9051
▁源田	-10.9052
認めて	-10.9052
監督は	-10.9057
なりたい	-10.9058
ってことで	-10.9065
くるわ	-10.9067
入ったら	-10.9072
ちゅう	-10.9073
してたし	-10.9073
タブ	-10.9073
行くと	-10.9076
年以上	-10.9077
思い出して	-10.9078
マンガ	-10.9083
AC	-10.9084
はいらん	-10.9086
いえば	-10.9086
もろ	-10.9089
あたりで	-10.9089
エイ	-10.9091
乗ってる	-10.9095
に入った	-10.9099
せー	-10.91
てるんや	-10.9101
おもろ	-10.9106
あげたい	-10.9109
ローカル	-10.9109
▁松本	-10.911
言っと	-10.911
▁17	-10.9112
流し	-10.9115
▁なんの	-10.9116
濃	-10.9117
人種	-10.9117
いるか	-10.9119
んだけどな	-10.912
しこ	-10.912
▁柴田	-10.912
がおらん	-10.9123
なかったな	-10.9124
▁文系	-10.9126
やなかったっけ	-10.9126
超えた	-10.9132
かったから	-10.9135
am	-10.9136
柿	-10.9137
超えて	-10.9138
懐	-10.9138
されるの	-10.9138
した模様	-10.9138
講	-10.9139
パンチ	-10.9139
△	-10.914
ポテト	-10.914
斬	-10.914
同級生	-10.914
こちら	-10.914
茨城	-10.914
監視	-10.914
裁判	-10.914
ゴールデン	-10.9141
▁ほぼ	-10.9141
^*)	-10.9141
されている	-10.9141
粘着	-10.9141
うれしい	-10.9141
要員	-10.9142
盛り上がって	-10.9142
充分	-10.9142
細かい	-10.9142
不可能	-10.9143
悩み	-10.9143
▁今来た	-10.9144
コスパ	-10.9144
自滅	-10.9144
おもんない	-10.9147
名将	-10.9148
▁堂林	-10.9148
リメイク	-10.9148
センチ	-10.9148
アイツ	-10.9148
トゥ	-10.9149
んよね	-10.9151
長崎	-10.9151
ハート	-10.9151
(^	-10.9152
▁俺は	-10.9154
安楽	-10.9154
合わん	-10.9155
チック	-10.9156
NE	-10.9157
▁おめでとう	-10.9158
▁岡崎	-10.9158
スカイ	-10.916
増やす	-10.9161
一度も	-10.9162
役割	-10.9162
高崎	-10.9163
じゃいかんのか	-10.9164
怖くて	-10.9167
ED	-10.9169
オス	-10.917
▁ぼく	-10.9172
ミット	-10.9173
手首	-10.9174
偉い	-10.9174
▁何も	-10.9175
せんやろ	-10.9176
et	-10.9177
ノコ	-10.9177
よく分からん	-10.9178
上がらん	-10.9179
んとこ	-10.918
てまう	-10.918
関係者	-10.9182
した時	-10.9185
教えてや	-10.9186
高かった	-10.9189
勤	-10.9189
近所の	-10.9192
パイア	-10.9192
抑えられる	-10.9192
んやろうなぁ	-10.9193
▁北朝鮮	-10.9195
たのが	-10.9197
の間に	-10.9197
日本酒	-10.9198
優しい世界	-10.9201
のもある	-10.9203
▁PS	-10.9204
煽る	-10.9213
お茶	-10.9216
のが悪い	-10.922
たいンゴねぇ	-10.9221
初めて見た	-10.9224
支え	-10.9224
みたいになる	-10.9224
潰す	-10.9224
ボル	-10.9224
ガラ	-10.9227
こうやって	-10.9227
せぇ	-10.9228
やってみる	-10.9229
に負ける	-10.9231
来年は	-10.9234
アニメ部	-10.9236
コンプ	-10.9238
大学で	-10.9239
赤松	-10.9239
まじで	-10.9239
降り	-10.9241
▁(●ﾟ◇ﾟ●)	-10.9241
考え方	-10.9242
程度で	-10.9242
なんですがそれは	-10.9243
生まれて	-10.9244
失点で	-10.9244
外国	-10.9245
の打席	-10.9247
訴	-10.9247
▁ホンマに	-10.9249
オカ	-10.925
やないかな	-10.9251
切り替え	-10.9252
消し	-10.9261
んとちゃう	-10.9261
高知	-10.9265
になってきた	-10.9267
▁マシソン	-10.9269
プロテクト	-10.9271
▁阪神ファン	-10.9271
になったわ	-10.9272
アニメの	-10.9272
▁イギリス	-10.9274
▁さっきの	-10.9275
ゴルフ	-10.9279
あああああああああああああああ	-10.9279
の活躍	-10.9286
がんばって	-10.9286
▁鷹さん	-10.9296
as	-10.9297
並感	-10.93
掘	-10.9304
年前の	-10.9305
▁地元	-10.9305
期待できる	-10.9306
シア	-10.9307
とおも	-10.9308
５０	-10.9308
金額	-10.9312
取り上げ	-10.9313
▁夜	-10.9315
の歌	-10.932
らしいが	-10.9325
継	-10.9326
▁2016	-10.9327
そのもの	-10.9329
翔	-10.9329
何があったんや	-10.9332
育てた	-10.9333
SE	-10.9333
牧	-10.9335
みの見物	-10.9336
上から	-10.9337
晃	-10.9338
傾	-10.934
幻	-10.934
愚	-10.934
ジッジ	-10.934
本拠地	-10.934
きっかけ	-10.934
ヒラリー	-10.934
―	-10.934
アイテム	-10.934
溝脇	-10.934
仮面ライダー	-10.934
必須	-10.934
コロコロ	-10.934
錯乱	-10.934
改造	-10.934
ツーシーム	-10.9341
絶賛	-10.9341
ラブライブ	-10.9341
露骨	-10.9341
パラデス	-10.9341
保存	-10.9341
調査	-10.9341
転売	-10.9341
札幌ドーム	-10.9342
農業	-10.9342
家賃	-10.9342
大阪桐蔭	-10.9342
梨田	-10.9342
ティング	-10.9342
降板	-10.9342
すればええんや	-10.9343
ビックリ	-10.9343
グラスラ	-10.9343
方針	-10.9344
一致	-10.9344
▁ちなワイ	-10.9344
清水	-10.9345
平沢	-10.9345
▁関係ないけど	-10.9346
福島	-10.9346
性能	-10.9346
いまだに	-10.9347
けりゃ	-10.9348
ベイス	-10.9349
住む	-10.9349
定着	-10.9351
多いんや	-10.9351
この人	-10.9351
福山	-10.9352
現実的	-10.9352
優秀な	-10.9353
いずれ	-10.9354
お菓子	-10.9355
の塊	-10.9355
落とせ	-10.9355
ホラー	-10.9357
飛ばす	-10.9358
みたいやで	-10.9358
旨い	-10.9362
都内	-10.9363
京大	-10.9365
頼り	-10.9366
▁なんやこれ	-10.9368
▁ネトウヨ	-10.9371
^)	-10.9372
▁伊藤	-10.9372
求	-10.9373
バター	-10.9374
どのくらい	-10.9374
送って	-10.9375
やないけど	-10.9376
知らんかったわ	-10.9381
どうなるんやろ	-10.9382
いつも通り	-10.9382
なけりゃ	-10.9384
は確か	-10.9384
大丈夫やで	-10.9385
oo	-10.9387
飯田	-10.9387
▁日本で	-10.9388
信じてる	-10.9388
▁かわいい	-10.9389
でさえ	-10.9394
育てる	-10.9395
▁これでも	-10.9397
ギー	-10.9401
中古	-10.9402
成功した	-10.9403
染め	-10.9403
世界観	-10.9404
▁やめて	-10.9407
たらアカン	-10.9408
あそこまで	-10.941
市内	-10.9413
子供が	-10.9416
イケ	-10.9419
▁浅村	-10.9424
▁ただし	-10.9425
へんけど	-10.9426
勘弁して	-10.9427
貯め	-10.943
訴え	-10.9434
日本ハム	-10.9434
奴おる	-10.9436
▁残り	-10.9439
知ってた	-10.9439
見たことある	-10.9439
でもいいから	-10.9444
たくて	-10.9445
の割に	-10.9448
乗せ	-10.945
そいつら	-10.945
ーム	-10.9451
▁すごい	-10.9451
▁W	-10.9453
▁さとる	-10.9453
フリ	-10.9456
昔は	-10.9459
投手に	-10.946
お酒	-10.9464
ゆー	-10.9465
みたく	-10.9467
▁今回の	-10.9469
わかるわ	-10.9469
操	-10.9472
▁ペ	-10.9472
あの人	-10.9474
▁抑え	-10.9478
▁アル	-10.9484
あかんわ	-10.9484
▁広島ファン	-10.9485
あるかも	-10.9486
できるし	-10.9489
ない奴	-10.9489
記憶が	-10.949
もあるで	-10.949
▁この試合	-10.9492
もあって	-10.9493
ラス	-10.9495
なかったのか	-10.9495
好きだった	-10.9496
したとき	-10.9496
感じた	-10.9498
学科	-10.95
▁ちなヤク	-10.9502
新規	-10.9502
ったりする	-10.9504
重要な	-10.9504
一昨日	-10.9504
答える	-10.9504
この時間	-10.9504
▁さっきから	-10.9507
なりそう	-10.9515
駅の	-10.9516
癖に	-10.9517
やるから	-10.9518
ずら	-10.9518
へんか	-10.9519
▁それこそ	-10.952
貧打	-10.9521
になるのか	-10.9523
欲し	-10.953
▁つか	-10.9531
はガチで	-10.9536
いうて	-10.9537
必	-10.9541
▁シャ	-10.9541
典	-10.9542
賀	-10.9542
と思うと	-10.9543
おらんから	-10.9544
裁	-10.9544
朗	-10.9544
ちょくちょく	-10.9544
無理矢理	-10.9544
URL	-10.9544
オコエ	-10.9544
冒	-10.9544
湖	-10.9544
かも知れん	-10.9544
熟	-10.9544
ハヤタ	-10.9544
ビッグ	-10.9544
ﾏ	-10.9544
おそらく	-10.9544
んやないかな	-10.9544
ジャニーズ	-10.9544
vip	-10.9544
谷繁	-10.9545
秘密	-10.9545
廃止	-10.9545
稼いで	-10.9545
コーナー	-10.9545
暴投	-10.9545
後者	-10.9545
里崎	-10.9546
発音	-10.9546
捉え	-10.9546
に比べて	-10.9546
ネーム	-10.9546
途中から	-10.9546
オンライン	-10.9546
ないやんけ	-10.9547
合計	-10.9547
未満	-10.9547
売る	-10.9547
すぎるやろ	-10.9547
サンクス	-10.9548
入試	-10.9549
へんわ	-10.955
してるわ	-10.955
３０	-10.9551
スレたて	-10.9551
体調	-10.9552
単発	-10.9552
別人	-10.9554
坂口	-10.9554
進学	-10.9555
生き物	-10.9557
鈴木誠也	-10.9557
ペット	-10.9558
内定	-10.9559
堂上	-10.9559
してほしいわ	-10.956
行ったことない	-10.9561
やっ	-10.9564
割台	-10.9564
ボウ	-10.9565
エンド	-10.9569
止める	-10.957
ポケ	-10.9574
時間かかる	-10.9576
ってことやろ	-10.9577
出すの	-10.9578
誰にも	-10.9579
と思ってたわ	-10.9579
の場合は	-10.958
おき	-10.9582
その分	-10.9582
大学の	-10.9586
直す	-10.9587
しとるから	-10.9587
ムズ	-10.9589
駆け	-10.9589
有る	-10.9591
送った	-10.9594
2012	-10.9595
ぽい	-10.9596
WAR	-10.9598
こわ	-10.9599
ナス	-10.96
やったね	-10.9606
から大丈夫	-10.9611
700	-10.9612
休め	-10.9614
.....	-10.9615
騙され	-10.9615
ってのもある	-10.9616
なかったんか	-10.9617
ニック	-10.9618
あかんやろ	-10.9619
どちらか	-10.9621
我が	-10.9621
のくせに	-10.9623
▁そんなもん	-10.9623
するつもり	-10.9625
山下	-10.963
の一つ	-10.9633
♡♡	-10.9639
倒す	-10.9641
込	-10.9644
▁一昨年	-10.9645
管理人	-10.9645
▁稀勢の里	-10.965
しなければ	-10.965
税金	-10.965
野球選手	-10.9653
▁今シーズン	-10.9656
カモ	-10.9656
地下	-10.966
してるんか	-10.9661
▁安倍	-10.9661
▁ワイちな	-10.9662
は大丈夫	-10.9662
たやつ	-10.9664
べきや	-10.9665
ようなもんや	-10.9666
どうなった	-10.9668
と比べて	-10.9669
SF	-10.967
残念や	-10.9672
▁ヒット	-10.9672
すんの	-10.9674
選べ	-10.9677
ッポ	-10.9677
at	-10.9678
になったり	-10.9687
叫	-10.9689
釣られ	-10.9696
だろうから	-10.97
で十分	-10.9709
の代わりに	-10.9717
ボール球	-10.972
燃	-10.9724
は基本	-10.9728
旨	-10.973
故	-10.9732
▁戸柱	-10.9732
ぶっちゃけ	-10.9733
▁本田	-10.9733
育てて	-10.9737
ガッキ	-10.9737
になるやろ	-10.9745
たほうがええ	-10.9746
MT	-10.9746
みたいなのが	-10.9747
叩いてる	-10.9747
繰り	-10.9747
しぇ	-10.9748
糸	-10.9749
は知らんけど	-10.9749
賛	-10.9751
状	-10.9751
副	-10.9752
却	-10.9752
ダルビッシュ	-10.9752
プレゼント	-10.9752
ピアノ	-10.9752
輔	-10.9752
ガッフェ	-10.9753
俳優	-10.9753
天ぷら	-10.9753
提供	-10.9753
あっさり	-10.9753
ホワイト	-10.9753
特有の	-10.9753
到達	-10.9753
降って	-10.9753
一理ある	-10.9753
介護	-10.9753
あり得る	-10.9753
解凍	-10.9753
温存	-10.9753
豆腐	-10.9753
正確	-10.9754
十亀	-10.9754
連載	-10.9754
ダービー	-10.9755
▁さんがつ	-10.9755
強豪	-10.9755
エアプ	-10.9756
避難	-10.9756
喜び	-10.9756
喜ぶ	-10.9756
コラボ	-10.9757
メタル	-10.9757
戸田	-10.976
島根	-10.976
帰国	-10.9761
新卒	-10.9761
いうと	-10.9761
ブランド	-10.9762
なくね	-10.9762
ライアン	-10.9762
鉄道	-10.9764
やないで	-10.9764
入っとる	-10.9765
▁秋吉	-10.9767
意地	-10.9767
BC	-10.9767
もらいたい	-10.9768
調べてみ	-10.9768
声かけ	-10.9769
速球	-10.9769
がわかる	-10.977
球種	-10.9771
電子	-10.9771
引っ越	-10.9773
▁イッチも	-10.9775
130	-10.9777
▁全員	-10.9782
▁なんやこの	-10.9782
コーラ	-10.9784
科目	-10.9787
世界に	-10.9788
ワーク	-10.979
検索して	-10.9791
is	-10.9791
大河	-10.9793
久しぶりに	-10.9794
過ごし	-10.9794
より上	-10.9796
天気	-10.9797
するような	-10.9801
心理	-10.9802
▁大竹	-10.9804
打てて	-10.9812
はないわ	-10.9812
学院	-10.9815
西野	-10.9816
帰った	-10.9818
まれた	-10.982
したいんや	-10.9822
んのかな	-10.9825
の肩	-10.9826
になってしまった	-10.9828
じゃないんか	-10.9828
ヒロ	-10.9829
書き込め	-10.983
人が多い	-10.9831
付いた	-10.9831
会った	-10.9833
ねーよ	-10.9836
ファンに	-10.9836
もはや	-10.9837
なんですが	-10.9838
に行こう	-10.984
89	-10.984
よかったな	-10.9847
止めて	-10.985
救い	-10.9851
更	-10.9853
多いけど	-10.9854
▁ほとんど	-10.9857
吸って	-10.986
は知らんが	-10.986
するだけで	-10.9863
壊れて	-10.9866
疲れる	-10.9869
だからセーフ	-10.9871
▁ありがとうやで	-10.9873
も悪い	-10.9879
作ろう	-10.988
はじめて	-10.9883
きみ	-10.9884
きん	-10.9884
っていうのは	-10.9884
ローマ	-10.9886
試合中	-10.9886
買	-10.9887
天国	-10.9891
っとく	-10.9894
二番	-10.9896
▁中日さん	-10.9904
だした	-10.9904
かもしれんし	-10.9908
▁千葉	-10.9908
になるのは	-10.991
マスク	-10.9913
今回の	-10.9913
の女	-10.9913
使いたい	-10.9914
簡単な	-10.992
もいない	-10.992
は確かに	-10.9921
がいるから	-10.9921
は悪くない	-10.9922
の写真	-10.9925
良太	-10.9928
てるし	-10.993
成長して	-10.9932
ベタ	-10.9933
収ま	-10.9935
辞	-10.9937
の解説	-10.9937
やめてくれ	-10.9938
働け	-10.9939
そう言う	-10.9939
たらあかん	-10.994
もなかなか	-10.9944
時間を	-10.9945
振って	-10.9947
キュー	-10.9949
▁濱口	-10.995
やろうなぁ	-10.9954
ER	-10.9957
れよ	-10.9957
噛	-10.9959
笠原	-10.996
戦国	-10.996
に乗って	-10.9961
誰やねん	-10.9962
須	-10.9962
庭	-10.9963
もともと	-10.9963
知らんが	-10.9964
鶏	-10.9964
管	-10.9964
公立	-10.9965
ヽ	-10.9965
彦	-10.9965
癒	-10.9965
すげぇ	-10.9965
休憩	-10.9965
芸能人	-10.9965
贅沢言わんから	-10.9965
コンテンツ	-10.9965
妊	-10.9965
二刀流	-10.9965
剛	-10.9965
照ノ富士	-10.9965
蟹	-10.9965
ﾃ	-10.9965
小谷野	-10.9965
漫才	-10.9965
マイコラス	-10.9965
曰く	-10.9966
畠山	-10.9966
リア充	-10.9966
削除	-10.9966
▁サンイチ	-10.9966
とは思えん	-10.9966
感じやな	-10.9966
大きさ	-10.9966
アニソン	-10.9966
診断	-10.9966
亀澤	-10.9966
忙しい	-10.9966
乙坂	-10.9966
構わん	-10.9967
▁おいおい	-10.9967
豊橋	-10.9967
満塁で	-10.9968
同盟	-10.9968
リンク	-10.9968
番目	-10.9969
有料	-10.9969
ポジ要素	-10.9969
平等	-10.997
スープ	-10.9971
やれよ	-10.9971
恋人	-10.9972
ay	-10.9972
▁横浜の	-10.9974
岩田	-10.9974
やったやろ	-10.9976
に限って	-10.9978
戦術	-10.9979
銀次	-10.998
有原	-10.998
とるんか	-10.9982
人材	-10.9984
ビット	-10.9985
そうで怖い	-10.9986
ホッ	-10.9986
が分からん	-10.9988
いくで	-10.999
初め	-10.9991
ﾞｰ	-10.9991
不安定	-10.9994
って言ったら	-10.9994
こりゃ	-10.9997
▁ここに	-10.9999
ひっ	-11
ON	-11.0003
稼げ	-11.0003
惚れ	-11.0005
溶け	-11.0007
んですよ	-11.0007
求めて	-11.0008
42	-11.0008
ラッシュ	-11.0009
はやく	-11.001
もおるし	-11.001
先頭	-11.0011
打ってくれ	-11.0013
行くの	-11.0017
山川	-11.002
46	-11.0028
冷や	-11.0028
WW	-11.0029
▁地味に	-11.0033
この世	-11.0034
しもた	-11.0036
見せる	-11.0041
口に	-11.0044
って考え	-11.0051
楽しみに	-11.0052
億円	-11.0054
一定	-11.0055
ないねん	-11.0055
どう思う	-11.0055
審	-11.0056
は大きい	-11.0057
イング	-11.0057
為に	-11.0057
ES	-11.0057
がないと	-11.0058
したやつ	-11.0059
▁君の	-11.006
工業	-11.0065
って名前	-11.0071
広く	-11.0073
民族	-11.0073
▁今日の試合	-11.0089
ライス	-11.0092
▁すまんが	-11.0093
･´)「	-11.0095
▁初期	-11.0096
いつまでも	-11.0097
▁阪神さん	-11.0098
はずやで	-11.01
が増える	-11.0101
最多	-11.0103
はないで	-11.0103
なイメージ	-11.0108
と思	-11.0111
▁上林	-11.0112
主に	-11.0112
行ってた	-11.0113
キレる	-11.0113
日程	-11.0117
ブック	-11.0118
当てる	-11.012
途	-11.0123
笑った	-11.013
んじゃないかな	-11.0131
▁ウィーランド	-11.0131
嫌われる	-11.0138
ウケ	-11.014
貢献	-11.0141
▁君は	-11.0142
それ以上	-11.0142
投手戦	-11.0145
を使って	-11.0146
描き	-11.0146
▁エルドレッド	-11.0146
とええで	-11.0147
くれてありがとう	-11.015
勇	-11.0154
かかってる	-11.0155
でええんちゃう	-11.0157
たいんや	-11.016
おかし	-11.0163
自由に	-11.0163
ホームラン打つ	-11.0164
助けて	-11.0168
威	-11.017
干	-11.0175
駄	-11.0177
守備力	-11.0179
でいう	-11.018
獣	-11.018
均	-11.0181
寿	-11.0182
刊	-11.0182
皇	-11.0182
免	-11.0182
庁	-11.0183
冊	-11.0183
マスコット	-11.0183
ばんてふ	-11.0183
ウイスキー	-11.0183
図書館	-11.0183
紺	-11.0183
ﾜ	-11.0183
#	-11.0183
□	-11.0183
ブーメラン	-11.0183
お姉様	-11.0183
祖父江	-11.0183
狼	-11.0183
開催	-11.0183
サイコパス	-11.0183
ギャレット	-11.0183
解釈	-11.0183
治療	-11.0183
名誉	-11.0183
絶許	-11.0183
許さない	-11.0183
ジャイアンツ	-11.0184
読売	-11.0184
ガルパン	-11.0184
構成	-11.0184
とんでもない	-11.0184
思いっきり	-11.0184
！？」	-11.0184
指示	-11.0185
意図	-11.0185
ツーラン	-11.0185
ライオンズ	-11.0186
知能	-11.0186
アンダー	-11.0186
ダウン	-11.0186
特集	-11.0186
富山	-11.0187
▁ぐうわかる	-11.0187
具合	-11.0187
共産主義	-11.0188
銀行	-11.0188
北陸	-11.0189
バーガー	-11.0189
道具	-11.0189
ブーム	-11.0189
回答	-11.019
陽川	-11.0191
戦略	-11.0191
が多すぎる	-11.0194
皆無	-11.0194
文明	-11.0194
するまで	-11.0195
リセット	-11.0197
二人とも	-11.0197
じゃないのか	-11.0198
意味深	-11.0198
100%	-11.0198
ホール	-11.02
投手を	-11.02
進む	-11.02
会場	-11.02
積み	-11.0201
母親	-11.0202
気にして	-11.0202
あくまで	-11.0202
無意味	-11.0204
が全て	-11.0205
´)	-11.0206
勝ち組	-11.0207
ついでに	-11.0207
体力	-11.0209
右打者	-11.021
マシン	-11.0211
されると	-11.0211
サル	-11.0215
コスト	-11.0216
コア	-11.0218
▁どこで	-11.0218
田代	-11.0218
流行ってる	-11.0218
定期的に	-11.022
ブロック	-11.0223
続けた	-11.0223
ネコ	-11.0225
一歩	-11.023
同士の	-11.023
た方がええ	-11.0231
投げさせて	-11.0234
▁お前も	-11.0235
じゃなかったら	-11.0241
▁香川	-11.0244
はそこまで	-11.0244
何度	-11.0244
きたけど	-11.0244
せんわ	-11.0244
せいか	-11.0245
議員	-11.0246
やつやな	-11.0247
生えて	-11.0251
になってまう	-11.0252
認める	-11.0255
回くらい	-11.0257
選べる	-11.0266
カッコいい	-11.0272
歩き	-11.0273
あら	-11.0281
を持つ	-11.0281
出身の	-11.0282
してもええ	-11.0287
があるのか	-11.0288
慣れて	-11.0291
内容は	-11.0292
留学	-11.0294
土日	-11.0296
戻ってくる	-11.0296
静か	-11.0297
居た	-11.0301
と思うよ	-11.0303
すごいわ	-11.0306
安定して	-11.031
▁うわ	-11.031
キャラが	-11.0312
▁これ以上	-11.0314
少しは	-11.0315
以下の	-11.0318
住んでる	-11.0318
足立	-11.0323
ましたね	-11.0323
明日から	-11.0326
千円	-11.0328
って言っても	-11.0328
いらんやろ	-11.0329
黒い	-11.0333
▁今のところ	-11.0335
が勝手に	-11.0336
落ちてる	-11.0338
▁横浜は	-11.0339
したらあかん	-11.034
倒れ	-11.0341
▁おやすみ	-11.0342
打たせ	-11.0343
イッ	-11.0345
終わりやね	-11.035
ばええんや	-11.0358
食ってる	-11.036
無くて	-11.0361
会議	-11.0361
答	-11.0366
de	-11.0369
争	-11.0373
に入れて	-11.0375
組んだ	-11.038
ってやっぱ	-11.038
の中でも	-11.0383
パパ	-11.0387
史上	-11.0388
順位スレ	-11.039
バリ	-11.0396
夕	-11.0397
無くなった	-11.0397
ということは	-11.0398
もんなんか	-11.0398
言ってたけど	-11.0399
詞	-11.04
日テレ	-11.0401
才	-11.0402
折れ	-11.0403
されん	-11.0404
診	-11.0404
柱	-11.0404
冠	-11.0404
昌	-11.0405
Ｏ	-11.0405
浸	-11.0405
おにぎり	-11.0405
せいぜい	-11.0405
セペダ	-11.0405
アクセス	-11.0405
五十嵐	-11.0405
ノウミサン	-11.0405
ラグビー	-11.0405
修学旅行	-11.0405
ひっくり返	-11.0405
矛盾	-11.0405
トリプルスリー	-11.0405
バリバリ	-11.0405
医療	-11.0405
選抜	-11.0405
気づか	-11.0405
ファイナル	-11.0405
ウィーラー	-11.0405
装備	-11.0406
計画	-11.0406
理屈	-11.0406
悲劇	-11.0406
武蔵	-11.0406
おばさん	-11.0406
解雇	-11.0406
移住	-11.0406
ゼルダ	-11.0406
想定	-11.0407
野獣	-11.0407
賭け	-11.0407
胃薬	-11.0407
RA	-11.0407
商品	-11.0407
の仕方	-11.0407
だったはず	-11.0408
補正	-11.0408
雄平	-11.0408
生徒	-11.0408
もらおう	-11.0408
進藤	-11.0408
制作	-11.0409
人もおる	-11.041
▁ヤクさん	-11.0411
並ぶ	-11.0413
.250	-11.0414
団体	-11.0414
ジャパン	-11.0414
立浪	-11.0415
る可能性	-11.0415
カフェ	-11.0416
父親	-11.0416
ミスった	-11.0417
受け入れ	-11.0417
生命	-11.0418
繋がって	-11.0421
したんやろ	-11.0421
ジャック	-11.0424
会長	-11.0425
君ら	-11.0426
負け運	-11.0426
たて	-11.0427
回無失点	-11.0428
みたけど	-11.0429
組む	-11.043
よっしゃ	-11.0431
試合終了	-11.0431
真面目	-11.0433
化け	-11.0434
厳しく	-11.0434
900	-11.0435
パクリ	-11.0436
春先	-11.0437
性癖	-11.044
順番	-11.0441
対左	-11.0443
勝敗	-11.0447
やないと	-11.0447
ひら	-11.0451
楽勝	-11.0451
吐	-11.0451
開く	-11.0452
してるのに	-11.0452
国会	-11.0454
やめてほしい	-11.0455
よく見る	-11.046
それでええ	-11.0461
ゴム	-11.0462
一時	-11.0467
あったから	-11.0468
初の	-11.0469
づけ	-11.047
中途半端	-11.0471
米軍	-11.0474
背中	-11.0474
おるやん	-11.0478
払	-11.0478
並み	-11.048
消化	-11.048
オイ	-11.0481
払え	-11.0484
やろうから	-11.0485
極端	-11.0486
の責任	-11.0494
があるらしい	-11.0496
人がいる	-11.0499
メモ	-11.0501
揺	-11.0508
チャレンジ	-11.051
TO	-11.0511
今すぐ	-11.0516
塗り	-11.0521
ってイメージ	-11.0522
どれも	-11.0524
評価され	-11.0529
どんなもん	-11.0536
選ばれ	-11.0537
高田	-11.0538
りすぎ	-11.0543
いる模様	-11.0544
聞いたこと	-11.0544
ことがある	-11.0546
認	-11.0548
嫌われてる	-11.0551
だして	-11.0553
見たいわ	-11.0557
着く	-11.0557
被って	-11.0558
中川	-11.0559
てしまい	-11.0561
に戻る	-11.0562
方向に	-11.0562
の投球	-11.0564
▁明日から	-11.0564
さげ	-11.0564
本田	-11.057
ずる	-11.057
はすごい	-11.0574
っといて	-11.0575
たほうがいい	-11.0578
ゲーム部	-11.0578
ぽん	-11.058
生産	-11.058
それだけで	-11.0581
になるわ	-11.0582
早すぎ	-11.0582
打席で	-11.0586
を見ると	-11.0588
諦めた	-11.059
態	-11.0593
ないんやけど	-11.0595
へんから	-11.0597
勝てん	-11.0603
の方は	-11.0604
もええけど	-11.0605
シリア	-11.0608
呪い	-11.0609
小さく	-11.061
げて	-11.061
るんやぞ	-11.0612
笑える	-11.0612
点差で	-11.0613
ガル	-11.0615
▁うせやろ	-11.0615
つつある	-11.0619
衆	-11.0619
今期	-11.0622
じゃないぞ	-11.0623
珍	-11.0624
が大きい	-11.0625
並みの	-11.0625
ていう	-11.0627
双	-11.063
句	-11.063
人間に	-11.0631
筒	-11.0631
封	-11.0632
喉	-11.0632
syamu	-11.0632
に限らず	-11.0632
エピソード	-11.0632
卑怯	-11.0632
枕	-11.0632
キャラクター	-11.0632
メートル	-11.0632
回跨ぎ	-11.0632
幾	-11.0632
くーださい	-11.0632
プエルトリコ	-11.0632
歓迎	-11.0632
／	-11.0632
さっぱり	-11.0632
タオル	-11.0632
ハンバーグ	-11.0632
ニワカ	-11.0632
震えて眠れ	-11.0632
予測	-11.0633
いいよね	-11.0633
おまけ	-11.0633
併用	-11.0633
卍	-11.0633
転換	-11.0633
謝罪	-11.0633
順調	-11.0633
悟空	-11.0634
わかるで	-11.0634
違法	-11.0634
職員	-11.0635
書き込む	-11.0635
ヘイト	-11.0635
るとき	-11.0636
尾花	-11.0637
体育	-11.0639
飲食	-11.064
力士	-11.0643
演出	-11.0644
相川	-11.0645
達が	-11.0647
人もいる	-11.0648
！！！！！！！！！	-11.065
聞いたことない	-11.0651
しとるんか	-11.0653
塩見	-11.0653
ませんでした	-11.0654
太田	-11.0657
ワシ	-11.0658
気のせい	-11.0658
差がある	-11.0666
置いと	-11.0667
原発	-11.0668
チャンスで	-11.0668
▁|	-11.0668
エルドレッド	-11.067
チーズ	-11.067
とにかく	-11.0673
育つ	-11.0674
暗い	-11.0679
せえ	-11.068
フェア	-11.068
ねえよ	-11.0682
してもいい	-11.0684
わからへん	-11.0684
やろうね	-11.0684
せいや	-11.0687
ええん	-11.0689
あう	-11.0691
申し	-11.0692
気になって	-11.0692
って感じやな	-11.0693
した結果	-11.0693
の話を	-11.0694
▁せやろ	-11.0703
最大	-11.0703
無いし	-11.0704
横浜に	-11.0707
に影響	-11.0708
昼間	-11.0708
！！！！！	-11.0709
吹き	-11.0712
ディア	-11.0713
▁はぁ	-11.0715
アッ	-11.0719
ええんやけどな	-11.0719
数少ない	-11.0719
満塁ホームラン	-11.0719
テー	-11.0721
67	-11.0724
▁それはない	-11.0725
編集	-11.0727
あるかな	-11.0728
代え	-11.0728
興奮	-11.073
んかなぁ	-11.0733
流行り	-11.0735
してもうた	-11.0736
けない	-11.0736
試してみ	-11.0737
良くなった	-11.0737
られても	-11.0738
へんかった	-11.0739
宇宙人	-11.0743
嫌われ	-11.0747
顔面	-11.075
コネ	-11.0755
当てた	-11.076
のはおかしい	-11.0761
一部の	-11.0763
の姿	-11.0768
ピザ	-11.0768
違うんか	-11.077
休んで	-11.0771
打たん	-11.0772
すれ	-11.0775
やと思ってた	-11.0778
接戦	-11.0779
いるぞ	-11.0779
の雰囲気	-11.078
興味ある	-11.0783
違うんや	-11.0783
へんのや	-11.0784
wwwwwwwwwwww	-11.0786
動員	-11.079
可能性がある	-11.0793
出せない	-11.0799
タケ	-11.0799
ホームラン打って	-11.0802
って結局	-11.0804
ないからね	-11.081
んのに	-11.0812
言うなら	-11.0813
たれ	-11.0814
それくらい	-11.0817
-5	-11.0821
やしなあ	-11.0823
自ら	-11.0825
ないやつ	-11.0825
高学歴	-11.0828
わけちゃう	-11.083
引っ張	-11.0831
しか知らん	-11.0832
出てこ	-11.0832
しなくても	-11.0832
～」	-11.0832
んやなぁ	-11.0836
ゅう	-11.0844
とかなんとか	-11.0844
そこら	-11.0845
見たこと	-11.0846
足が	-11.0846
キレて	-11.0847
お疲れ様	-11.0848
股	-11.0849
誕生	-11.085
たろか	-11.0852
に代打	-11.0857
カク	-11.0857
見せた	-11.0859
刑	-11.086
イヤー	-11.0861
営	-11.0862
煙	-11.0862
メロ	-11.0862
憲	-11.0863
躍	-11.0863
到	-11.0864
及	-11.0864
ってことやな	-11.0864
築	-11.0864
保護	-11.0865
マーティン	-11.0865
”	-11.0865
叶	-11.0865
呑	-11.0865
儲かる	-11.0865
刃	-11.0865
嬢	-11.0865
AKB	-11.0865
アマゾン	-11.0865
クリーンナップ	-11.0865
攝津	-11.0865
突っ込んで	-11.0865
セリフ	-11.0865
聞こえる	-11.0865
ｵ	-11.0865
きゅん	-11.0865
ＨＲ	-11.0865
ビビった	-11.0865
店舗	-11.0865
指摘	-11.0865
要因	-11.0865
勤務	-11.0865
抹消	-11.0865
尽く	-11.0865
一旦	-11.0865
駿太	-11.0865
鶴竜	-11.0865
移転	-11.0866
憲法	-11.0866
植田	-11.0866
伊勢	-11.0866
続編	-11.0866
乱闘	-11.0866
真弓	-11.0867
突破	-11.0867
岩崎	-11.0867
ハーバード	-11.0867
多和田	-11.0867
釜田	-11.0867
無さそう	-11.0867
ナンバー	-11.0868
ツーアウト	-11.0868
ハンター	-11.0868
戦闘機	-11.0869
44	-11.087
同士で	-11.087
いい感じ	-11.087
どうすんねん	-11.0871
青春	-11.0872
偏見	-11.0874
農家	-11.0874
やばそう	-11.0874
資金	-11.0874
屋根	-11.0877
あの頃	-11.0877
ビーム	-11.0877
ゲスト	-11.0878
中毒	-11.0879
猫さん	-11.088
体制	-11.088
とるし	-11.0883
山路	-11.0884
やったかな	-11.0884
無職	-11.0884
回収	-11.0886
困った	-11.0886
が好きなんや	-11.0887
大して	-11.0889
貧	-11.089
なんぞ	-11.0909
カメ	-11.091
速さ	-11.091
のだろうか	-11.0911
▁ここの	-11.0912
このイッチ	-11.0913
戻る	-11.0917
ダメなん	-11.0918
ウィーランド	-11.092
どうするんやろ	-11.0924
んだろうか	-11.0927
に住んでる	-11.0927
のはしゃーない	-11.0928
しとるし	-11.0929
球投げ	-11.0931
2014	-11.0931
させたら	-11.0936
どこいった	-11.0939
*)	-11.094
乗った	-11.095
んちゃうんか	-11.0956
できるやろ	-11.0963
みたいなもんやろ	-11.0969
やなかったか	-11.0971
中盤	-11.0973
▁中日の	-11.0976
からずっと	-11.0986
行ってない	-11.0986
そこらへん	-11.0988
たんやで	-11.0992
付けた	-11.0998
流す	-11.0999
起こす	-11.1
になるんやろ	-11.1002
話してる	-11.1004
殴り	-11.1006
の前で	-11.101
価格	-11.1015
そのあと	-11.1016
エー	-11.1023
だけやな	-11.1024
一球	-11.1026
座って	-11.1027
成人	-11.1032
ムラン	-11.1036
の感想	-11.1038
飯食って	-11.1044
アカンやろ	-11.1045
はそこそこ	-11.1047
残した	-11.105
▁ロッテは	-11.105
聞か	-11.1051
久しぶり	-11.1056
だと思って	-11.1057
黒人	-11.1057
と思ってたけど	-11.1059
▁いやー	-11.106
叩かれてる	-11.1061
送る	-11.1064
しといた	-11.1066
さっきの	-11.1067
ではないけど	-11.1068
とるやろ	-11.1068
止めた	-11.1072
立ってる	-11.1072
増えてる	-11.1073
何より	-11.1076
レート	-11.1076
行けや	-11.1076
燃えた	-11.1081
ロウ	-11.1082
晴れ	-11.1089
じゃねーか	-11.1091
ええこと	-11.1092
筆	-11.1093
答えて	-11.1093
なんじゃ	-11.1093
中間	-11.1093
伸	-11.1097
自責	-11.1098
ヶ	-11.1098
あああああああああああああ	-11.1101
二位	-11.1101
革	-11.1102
軒	-11.1103
包	-11.1103
ビジネス	-11.1103
フェニックス	-11.1103
寮	-11.1103
忠	-11.1103
鎖	-11.1103
トレーニング	-11.1103
フィールド	-11.1103
沙	-11.1103
コナミ	-11.1103
飽きる	-11.1103
ジュース	-11.1103
脳みそ	-11.1103
あだ名	-11.1103
依頼	-11.1103
ラスボス	-11.1103
やろうや	-11.1103
看板	-11.1103
アニオタ	-11.1103
浴び	-11.1103
革命	-11.1103
自民党	-11.1104
始まり	-11.1104
教科書	-11.1104
ストライクゾーン	-11.1104
保証	-11.1104
ジョジョ	-11.1104
単独	-11.1104
ちょいちょい	-11.1105
美少女	-11.1105
降格	-11.1105
EN	-11.1105
便乗	-11.1105
チェーン	-11.1105
法則	-11.1105
わかりやすい	-11.1105
独身	-11.1105
劇場	-11.1106
表情	-11.1106
見よう	-11.1107
関係ないやろ	-11.1107
ドン引き	-11.1107
再現	-11.1107
マートン	-11.1108
全滅	-11.1108
返信	-11.1108
ど真ん中	-11.1108
あああああ	-11.1109
髪型	-11.1109
チェン	-11.1109
閉じ	-11.1109
流して	-11.111
コールド	-11.1111
ガンガン	-11.1111
ラップ	-11.1112
つまみ	-11.1112
アカウント	-11.1112
くらいやな	-11.1115
知れ	-11.1115
下園	-11.1116
イオン	-11.1121
ポップ	-11.1121
やったろ	-11.1124
出てこん	-11.1126
頼み	-11.1127
したほうが	-11.1127
川島	-11.1129
食べ物	-11.1131
▁アメリカの	-11.1133
色々と	-11.1136
めちゃ	-11.1136
倒した	-11.1139
になるんやで	-11.1139
知る	-11.1142
売り上げ	-11.1143
歩く	-11.1143
何かしら	-11.1144
信じられ	-11.1145
同じような	-11.1146
元ネタ	-11.1147
わからんのや	-11.1148
おおおおお	-11.1149
ログ	-11.1151
に入れる	-11.1153
たりして	-11.1155
▁ほんで	-11.116
スレ立てる	-11.1162
失敗した	-11.1162
だったり	-11.1164
あるんかな	-11.1166
ガリ	-11.1168
の呪い	-11.1168
俺たち	-11.1175
無いわ	-11.1175
発見	-11.1178
多いよな	-11.1178
この後	-11.1179
余計に	-11.118
自分も	-11.118
向いて	-11.1181
聞かない	-11.1185
無理やな	-11.119
パック	-11.1194
オーラ	-11.1197
解け	-11.1201
戻り	-11.1206
セ界	-11.1207
ホントに	-11.1207
ver	-11.1209
を思い出す	-11.1215
可能性はある	-11.1216
もしない	-11.1218
づく	-11.1219
と言うか	-11.1221
近くの	-11.1221
あかんのや	-11.1222
暮	-11.1224
聞くけど	-11.1226
うた	-11.1229
かねぇ	-11.1241
凄いな	-11.1243
やらかし	-11.1243
ないよね	-11.1245
苦手や	-11.1245
この回	-11.1248
派手	-11.125
欲しいンゴ	-11.1258
打ってない	-11.1259
からヘーキヘーキ	-11.1266
ゆき	-11.1267
やるんか	-11.1269
コウ	-11.1269
流行った	-11.1271
いるのに	-11.1273
いいこと	-11.1273
何があった	-11.1279
進出	-11.1279
▁なるほどな	-11.1281
かと思ってた	-11.1284
オム	-11.1286
リック	-11.1286
だろうか	-11.129
の悪口	-11.1291
っとけば	-11.1292
世界一	-11.1292
アニメ化	-11.1293
る模様	-11.1302
だよなあ	-11.1306
あんだけ	-11.1307
人達	-11.1307
何年か	-11.1308
どうなったんや	-11.1308
まっ	-11.1311
堅	-11.1315
んかなあ	-11.1317
喰	-11.1317
アカンかった	-11.1319
美味	-11.1321
と言える	-11.1322
は特に	-11.1323
してるのか	-11.1324
優勝して	-11.1326
様子	-11.1327
勝てそう	-11.1328
あるんやろか	-11.1329
化学	-11.133
あたりから	-11.1333
アサ	-11.1336
採	-11.1337
おらんか	-11.1338
ワイらが	-11.1342
徒	-11.1343
皆さん	-11.1345
屈	-11.1345
予備	-11.1346
尿	-11.1347
インパクト	-11.1347
Ｌ	-11.1347
丁寧	-11.1347
蒸	-11.1347
チャンピオン	-11.1347
括	-11.1347
random	-11.1347
ズムスタ	-11.1347
下半身	-11.1347
ｿ	-11.1347
ディズニー	-11.1347
ヘーゲンズ	-11.1347
日馬富士	-11.1347
稼頭央	-11.1347
徐々に	-11.1347
バッバ	-11.1347
バナナ	-11.1347
弁護士	-11.1347
髪の毛	-11.1347
幼稚園	-11.1347
嶺井	-11.1347
雑誌	-11.1347
おつかれ	-11.1347
最後は	-11.1347
ユーザー	-11.1347
政策	-11.1347
慎重	-11.1348
んように	-11.1348
稼ぎ	-11.1348
うらやましい	-11.1348
チェンジ	-11.1348
予言	-11.1348
止まって	-11.1349
空港	-11.1349
BGM	-11.1349
ライナー	-11.135
片岡	-11.135
乙女	-11.135
スリーラン	-11.1351
運命	-11.1351
やってたら	-11.1355
メダル	-11.1355
夕方	-11.1356
機関	-11.1356
こえ	-11.1357
コピー	-11.1357
ローズ	-11.1358
台風	-11.1358
球児	-11.1358
ピーク	-11.1358
名字	-11.136
スクイズ	-11.136
してれば	-11.1361
個性	-11.1362
打てば	-11.1365
入れたら	-11.1365
燃えて	-11.1366
音声	-11.1367
市場	-11.1368
大陸	-11.1369
んよなぁ	-11.137
出しても	-11.1371
▁ほんとこれ	-11.1371
視点	-11.1372
97	-11.1376
るわけない	-11.1377
航空	-11.1378
一週間	-11.138
悪くなる	-11.1385
っとんねん	-11.1385
月間	-11.1385
本格	-11.1385
こっちの	-11.1387
取られた	-11.1387
95	-11.1391
ダーク	-11.1393
シール	-11.1397
通る	-11.1401
ラム	-11.1402
人形	-11.1402
マレー	-11.1403
おかげで	-11.1404
好きやから	-11.1406
強そう	-11.1406
が見え	-11.1407
マッチ	-11.1407
パワ	-11.1408
ノック	-11.1409
年後に	-11.1411
はやっぱ	-11.1411
▁なにが	-11.1412
書いてあった	-11.1413
下がって	-11.1415
になろう	-11.1415
せーへん	-11.1423
練習して	-11.1425
甘く	-11.1431
非常	-11.1433
ですねぇ	-11.1433
したかった	-11.1434
冷静	-11.1434
ポリ	-11.1435
オススメやで	-11.1436
やないやろ	-11.1436
高校時代	-11.1437
絵描き	-11.1441
飛んだ	-11.1443
踏んで	-11.1444
忘れてる	-11.1447
あるんやろ	-11.1448
引っかか	-11.1449
からね仕方ないね	-11.1449
つけてる	-11.1452
を取る	-11.1455
しまうのか	-11.1457
おかしいやろ	-11.1461
って聞いて	-11.1466
難しく	-11.1467
てるだけ	-11.1469
くて草	-11.1471
無視して	-11.1472
...(	-11.1475
益	-11.1478
直後	-11.1487
▁あんなん	-11.1488
もんじゃない	-11.1493
終わりそう	-11.1493
好きな人	-11.1498
ハラ	-11.1504
やるわ	-11.1504
いきたい	-11.1508
投げられる	-11.1511
通じ	-11.1517
おもしろ	-11.1519
びっくりした	-11.152
たべ	-11.1524
らなあかん	-11.1525
っすね	-11.1526
籍	-11.1536
体質	-11.154
笑え	-11.154
長期	-11.1542
打線に	-11.1543
MS	-11.1544
しゃぶ	-11.1547
認められ	-11.1549
眠れ	-11.155
得意な	-11.1553
どんなん	-11.156
余計な	-11.1565
ない定期	-11.1566
稼げる	-11.1567
あるんやな	-11.1569
にこだわ	-11.157
モテる	-11.1572
▁おー	-11.1572
となる	-11.1576
ふざけ	-11.1578
どこかで	-11.1578
銭	-11.1587
偏	-11.1587
伏	-11.1588
冷えてる	-11.1588
に戻った	-11.1589
を与え	-11.159
ちゃんとした	-11.159
世界中	-11.1592
っちゃん	-11.1593
柴	-11.1594
ふり	-11.1594
って誰や	-11.1594
へんし	-11.1595
age	-11.1595
災	-11.1596
希	-11.1596
弄	-11.1597
スポンサー	-11.1597
アルバム	-11.1597
陽岱鋼	-11.1597
ﾉ	-11.1597
半ギレ	-11.1597
拭	-11.1597
砕	-11.1597
融	-11.1597
￣	-11.1597
ジャスティス	-11.1597
ナカジ	-11.1597
️	-11.1597
停止	-11.1597
ハロワ	-11.1597
覆	-11.1597
経緯	-11.1597
マウス	-11.1597
ベストナイン	-11.1597
誤審	-11.1597
経由	-11.1597
ツイート	-11.1597
豊富	-11.1597
33-4	-11.1598
政党	-11.1598
壊滅	-11.1598
布団	-11.1598
止まる	-11.1599
正社員	-11.1599
ショット	-11.16
適正	-11.16
サクサク	-11.16
山梨	-11.1601
刺身	-11.1601
総理	-11.1601
絵師	-11.1602
だいすこ	-11.1602
通常	-11.1602
要らない	-11.1602
そっか	-11.1603
協力	-11.1603
ヘゲ	-11.1604
性欲	-11.1604
タウン	-11.1605
治安	-11.1605
通過	-11.1606
羽生	-11.1607
似た	-11.1608
やしね	-11.1608
ボックス	-11.1609
覚醒する	-11.1609
初勝利	-11.1609
歌い	-11.161
頑張るんやで	-11.161
たまらん	-11.1612
頑張って欲しい	-11.1612
レアル	-11.1616
だけだから	-11.1618
変わってる	-11.1618
カラー	-11.1619
仕様	-11.1621
吸う	-11.1624
有力	-11.1625
人目	-11.1627
恐れ	-11.1628
出とる	-11.1628
パンク	-11.163
本職	-11.1632
いません	-11.1635
投げさせる	-11.1637
くらいかな	-11.1639
パリ	-11.164
JK	-11.164
ジム	-11.164
させない	-11.1643
投げれる	-11.1644
投げてない	-11.1644
批判する	-11.1646
方面	-11.1649
結果的に	-11.165
何回か	-11.1652
取らない	-11.1653
オオ	-11.1654
ゴゴゴ	-11.1657
見えん	-11.1659
んなよ	-11.1661
全試合	-11.1667
ずれ	-11.1668
読ま	-11.1669
引っ張り	-11.167
まわり	-11.1671
見逃し	-11.1671
ように見える	-11.1672
中東	-11.1675
UN	-11.1676
アイマス	-11.1676
やられる	-11.1677
ネル	-11.1681
変に	-11.1684
おつやで	-11.1686
隠し	-11.1694
アメリカに	-11.1694
の方が上	-11.1696
▁せやけど	-11.1698
ギリ	-11.1702
荒れてる	-11.1702
に勝てる	-11.1706
いてくれ	-11.1707
敗戦	-11.1707
乙やで	-11.1707
どこから	-11.1711
点くらい	-11.1714
の歴史	-11.1716
やらかして	-11.1717
続けてる	-11.1717
最新	-11.1721
上がれ	-11.1722
冷えて	-11.1723
きたんや	-11.1725
みてる	-11.173
したりする	-11.1733
オッ	-11.1734
質問ある	-11.1735
もあるやろ	-11.1736
あいつら	-11.1741
否定する	-11.1742
使われて	-11.1745
少なく	-11.1747
まち	-11.175
入ってくる	-11.1751
赤ちゃん	-11.1753
器用	-11.176
外した	-11.176
冷静に	-11.1762
走者	-11.1764
付ける	-11.1764
んだね	-11.1765
好きなんや	-11.1772
がメイン	-11.1773
セーフティ	-11.1774
打たれてる	-11.1774
次スレ	-11.1776
週末	-11.1778
精神的に	-11.1778
にはなる	-11.1784
が居る	-11.1786
らずに	-11.1787
コント	-11.1798
言ってるの	-11.1798
だけやんけ	-11.18
残せ	-11.1804
続いてる	-11.1811
の代わり	-11.1812
大活躍	-11.1815
さとる	-11.1821
結婚して	-11.1821
が増えて	-11.1825
引退する	-11.1826
高いから	-11.1834
夜中	-11.1835
かけられ	-11.1835
好きやわ	-11.1839
メタ	-11.1839
加減	-11.184
付いてる	-11.1841
が大事	-11.1843
勝ちたい	-11.1846
閣	-11.1851
頑張ってくれ	-11.1851
遣	-11.1851
鈴	-11.1852
令	-11.1852
方が良い	-11.1853
縄	-11.1853
吾	-11.1853
灯	-11.1853
ナックル	-11.1853
ハセカラ	-11.1853
メンドーサ	-11.1853
SNS	-11.1853
▁???「	-11.1853
ヤフコメ	-11.1853
飾	-11.1853
ﾍ	-11.1853
気づいて	-11.1853
けもフレ	-11.1853
可能性が微レ存	-11.1853
侵略	-11.1853
唐揚げ	-11.1853
ピロヤス	-11.1853
イジメ	-11.1853
禁煙	-11.1853
とは思えない	-11.1854
寿命	-11.1854
テンプレ	-11.1854
伝統	-11.1854
博多	-11.1854
絶好調	-11.1854
論争	-11.1854
震度	-11.1855
ロンドン	-11.1855
コミュ力	-11.1855
武将	-11.1855
群馬	-11.1855
被弾	-11.1855
ヲタ	-11.1856
加速	-11.1856
満員	-11.1856
藤平	-11.1857
辛島	-11.1858
できるように	-11.1858
いい選手	-11.1859
瞬間に	-11.1859
久々	-11.1859
サンダー	-11.1859
系列	-11.1859
ダッシュ	-11.1861
マンション	-11.1861
城島	-11.1862
ノーアウト	-11.1862
ワンポイント	-11.1862
メンツ	-11.1862
進学校	-11.1866
そっから	-11.1867
イラスト	-11.1867
老人	-11.1869
見る限り	-11.1869
尽き	-11.1872
価値観	-11.1875
ネタバレ	-11.1879
安田	-11.1883
気にせん	-11.1889
に向かって	-11.189
だけなんや	-11.1891
すんねん	-11.1892
カキ	-11.1894
使っとる	-11.1897
うまそう	-11.1898
ャ	-11.1904
この辺	-11.1905
森原	-11.1905
勢力	-11.1906
ディス	-11.1907
ちな巨	-11.1909
んかったら	-11.1909
が始まる	-11.1911
悪化	-11.1914
ロマ	-11.1916
1.2	-11.1916
代目	-11.1917
野次	-11.192
91	-11.192
関係ある	-11.192
ウィン	-11.1921
っぺ	-11.1922
気はする	-11.1928
とどっちが	-11.1938
えぇ	-11.1943
88	-11.1944
みたいになって	-11.1946
しか無い	-11.1947
を見つけ	-11.1948
夢を	-11.195
68	-11.1951
捕れ	-11.1954
大企業	-11.1956
に見えて	-11.1959
まとま	-11.196
しといて	-11.196
もう無理	-11.1964
なかったのに	-11.1965
▁広島さん	-11.1966
おら	-11.1966
おでん	-11.1967
調べる	-11.1968
１５	-11.197
使ってた	-11.1971
描	-11.1971
の頃は	-11.1973
ハムファン	-11.1974
怪	-11.1975
静	-11.1978
よぉ	-11.1981
しか見てない	-11.1985
一昨年	-11.1988
多少は	-11.1988
だろうね	-11.1992
連れ	-11.1996
が正解	-11.1999
よくて	-11.2
ちょうどええ	-11.2002
しヘーキヘーキ	-11.2007
撮影	-11.2007
本名	-11.2008
こと言う	-11.2012
ってとこ	-11.2016
どや	-11.2016
してるのが	-11.2016
分かってる	-11.2017
した後	-11.2017
こともない	-11.2018
ようがない	-11.2021
職人	-11.2022
朝日	-11.2022
飲んでる	-11.203
あああああああ	-11.2031
おつ	-11.2033
女優	-11.2036
言ってくれ	-11.2037
もいいけど	-11.2038
サビ	-11.204
間違ってる	-11.2041
飛ばせ	-11.2047
こま	-11.205
他人に	-11.2052
そういや	-11.2052
見に行った	-11.2052
不幸	-11.2053
37	-11.2054
動け	-11.2059
爆発する	-11.2062
いいゾ	-11.2065
強くて	-11.2069
してたのに	-11.207
覚えた	-11.207
が入ってる	-11.2071
年ぐらい	-11.2075
見たいンゴ	-11.208
懐かし	-11.2085
載せ	-11.2086
タカ	-11.209
もないのに	-11.2092
興	-11.2112
斗	-11.2112
寂	-11.2115
ケチ	-11.2115
束	-11.2115
房	-11.2116
臨	-11.2116
Ｎ	-11.2116
尊	-11.2116
献	-11.2116
ごちうさ	-11.2116
添	-11.2116
磯	-11.2116
紫	-11.2116
腸	-11.2116
待ったなし	-11.2116
滋賀	-11.2116
潤	-11.2116
鯖	-11.2116
ツッコミ	-11.2116
咽び泣く	-11.2116
幼	-11.2116
拝	-11.2116
クオリティ	-11.2116
四天王	-11.2116
豪栄道	-11.2116
遊戯王	-11.2116
﨑	-11.2116
リスペクト	-11.2116
アプデ	-11.2116
ヒトラー	-11.2116
中高生	-11.2116
不味い	-11.2116
ダメみたいですね	-11.2116
わたくし	-11.2117
ブーイング	-11.2117
▁残念ながら	-11.2117
追及	-11.2117
稲葉	-11.2117
夫婦	-11.2117
ビビる	-11.2117
構造	-11.2117
財布	-11.2117
牛丼	-11.2117
に向けて	-11.2117
唐川	-11.2118
盛り上がり	-11.2118
おんなじ	-11.2118
丁度	-11.2118
創作	-11.2119
拙者	-11.2119
激怒	-11.2119
注文	-11.2119
金曜	-11.212
混ざ	-11.212
腹筋	-11.212
権藤	-11.212
坊主	-11.212
便利屋	-11.212
QB	-11.2121
悪魔	-11.2121
勝たせ	-11.2122
現時点で	-11.2123
泣いた	-11.2124
ごっこ	-11.2125
方言	-11.2125
目当て	-11.2126
鷹さん	-11.2126
ギャル	-11.2127
しまくる	-11.2128
勝ちパターン	-11.2129
同情	-11.213
らしく	-11.213
行かせ	-11.213
リレー	-11.213
んですかねえ	-11.2131
押して	-11.2132
わたし	-11.2134
げん	-11.2134
股間	-11.2134
許さん	-11.2135
読者	-11.2136
星野	-11.2137
岩本	-11.2142
組み合わせ	-11.2143
先行	-11.2143
くれよ	-11.2145
厚い	-11.2146
濃い	-11.2147
はだいたい	-11.2148
アフィ	-11.2148
やんか	-11.2149
ピッチ	-11.215
プロ入り	-11.2151
▁そうなんや	-11.2152
文句言う	-11.2152
ピク	-11.2153
痛み	-11.2154
マックス	-11.2155
ようぜ	-11.2156
西村	-11.2157
深く	-11.2158
しまったのか	-11.2159
になりそうな	-11.2159
おっしゃ	-11.216
良くなる	-11.2162
島内	-11.2163
食べてる	-11.2163
入力	-11.2165
頭悪い	-11.2167
bo	-11.2171
ちゅー	-11.2171
ちゃい	-11.2171
ぼう	-11.2181
子供の頃	-11.2182
時半	-11.2184
追加点	-11.2184
助かった	-11.2185
次の回	-11.2187
泣きそう	-11.2187
失敗して	-11.2188
点取って	-11.2189
170	-11.2192
書いてた	-11.2192
やったぞ	-11.2196
んとちゃうか	-11.2197
明らか	-11.2198
くらいには	-11.22
こんなスレ	-11.2203
出ていく	-11.2206
水野	-11.2206
やったんやな	-11.2207
フェス	-11.221
前者	-11.221
初見	-11.2211
だからなぁ	-11.2214
頑張ってほしい	-11.2216
草野球	-11.2216
中日戦	-11.2222
トム	-11.2225
のかわからん	-11.2226
開いた	-11.2229
▁そんで	-11.2234
いけん	-11.2238
安定感	-11.2239
ワクワクする	-11.224
泣ける	-11.2242
気にし	-11.2243
うれ	-11.2246
お休み	-11.2246
わりに	-11.2248
だったんだ	-11.2253
怒られる	-11.2255
逃げて	-11.2256
ドライブ	-11.226
本体	-11.2262
へーきへーき	-11.2263
ウマ	-11.2263
まとめる	-11.227
どうしたんや	-11.2271
貼り	-11.2271
ええね	-11.2271
怒る	-11.2272
観る	-11.2274
｜	-11.2275
▁じゃあワイ	-11.2276
って言葉	-11.2277
大石	-11.2278
戻す	-11.2281
メシ	-11.2281
ありき	-11.2282
やってみたい	-11.2283
になってくれ	-11.2286
感じがする	-11.2286
その通り	-11.2291
ますねぇ	-11.2294
オレンジ	-11.23
廃れ	-11.2304
巨大	-11.2305
この試合	-11.2305
やってくれる	-11.2307
もちろん	-11.2316
キッ	-11.2316
してください	-11.2318
聞かん	-11.2319
教える	-11.232
むり	-11.2324
とかどうや	-11.2324
オク	-11.2324
してへん	-11.2326
構って	-11.2327
分ける	-11.2337
必要がある	-11.2338
49	-11.2339
かと思ったわ	-11.2341
消す	-11.2341
強打者	-11.2343
デル	-11.2349
言うとる	-11.2353
来てくれる	-11.2355
安定してる	-11.2357
会い	-11.2359
66	-11.236
めんどくさ	-11.2364
ｗｗｗｗｗｗｗｗｗ	-11.2365
読んでない	-11.2369
今のところ	-11.237
US	-11.2372
ましい	-11.2374
どうなの	-11.2375
ヤンキー	-11.238
違って	-11.2382
歌え	-11.2383
因	-11.2383
無理して	-11.2384
恩	-11.2385
ズレ	-11.2385
惨	-11.2386
婦	-11.2386
怠	-11.2386
※	-11.2387
粋	-11.2387
プリキュア	-11.2387
きっちり	-11.2387
猛打賞	-11.2387
粒	-11.2387
ありがとうございます	-11.2387
こっそり	-11.2387
ムカつく	-11.2387
猪	-11.2387
ｐ	-11.2387
ちうにち	-11.2387
ウキウキ	-11.2387
キリスト教	-11.2387
パヨク	-11.2387
アレルギー	-11.2387
堪	-11.2387
ブラジル	-11.2387
けものフレンズ	-11.2387
明るい	-11.2387
購入	-11.2387
苗字	-11.2387
踏ん張	-11.2387
に比べたら	-11.2387
疑惑	-11.2387
ありがとナス	-11.2387
憤怒	-11.2387
侍ジャパン	-11.2387
症状	-11.2387
芸術	-11.2387
模試	-11.2387
投資	-11.2388
動物園	-11.2388
散歩	-11.2388
賛成	-11.2388
ポジハメ	-11.2388
＾＾	-11.2388
は大体	-11.2388
稼ぐ	-11.2388
教科	-11.2388
ショップ	-11.2388
悩む	-11.2389
俊足	-11.2389
危機	-11.2389
一択	-11.2389
主砲	-11.239
とかあるんか	-11.239
待機	-11.239
付近	-11.2391
加えて	-11.2391
単打	-11.2391
くなってる	-11.2395
集合	-11.2396
飲み会	-11.2396
粘り	-11.2396
採点	-11.2396
清田	-11.2397
おっそうだな	-11.2397
区別	-11.2397
勝ち継投	-11.2397
オオオオオ	-11.2397
達川	-11.2398
ここ数年	-11.2399
ラーメン屋	-11.24
見つけて	-11.2401
留年	-11.2403
to	-11.2403
初登板	-11.2405
目玉	-11.2406
そのへん	-11.2407
つまり	-11.2407
存在しない	-11.2411
サラ	-11.2411
ルーム	-11.2411
2008	-11.2414
ガチガチ	-11.2415
カナ	-11.2415
脳内	-11.2419
ちゃうけど	-11.2419
ケーキ	-11.242
せんでも	-11.2421
浮かん	-11.2421
下がった	-11.2423
山形	-11.2426
軍事	-11.2428
雨野	-11.2432
出来てない	-11.2432
したいンゴ	-11.2433
賢い	-11.2437
ありえる	-11.2437
使われる	-11.2439
TS	-11.244
だよなぁ	-11.2441
でもええから	-11.2446
じゃ無い	-11.2446
慌て	-11.2447
取ったら	-11.245
役所	-11.245
国籍	-11.2452
ストップ	-11.2455
大手	-11.2456
ハリー	-11.2457
やらせて	-11.2458
おめやで	-11.2469
しもうた	-11.2479
当日	-11.248
返事	-11.2481
▁そー	-11.2481
人格	-11.2483
ギン	-11.2483
思うけど	-11.2483
空き	-11.2484
250	-11.2485
脱出	-11.2495
草生えるわ	-11.2498
良くなって	-11.2506
空いて	-11.2507
でいいから	-11.2508
上野	-11.2509
コイン	-11.251
ーーーーーー	-11.2511
貼った	-11.2511
繰り返し	-11.2513
もう一度	-11.2515
書い	-11.2522
半端ない	-11.2526
割くらい	-11.2531
押し出し	-11.2531
教えてくれる	-11.2533
溢	-11.2534
思い出せ	-11.2535
怖いンゴ	-11.2539
カズ	-11.2544
んだろうけど	-11.2546
せーや	-11.2547
ってそんなに	-11.2548
受けてる	-11.2549
カタ	-11.2551
定時	-11.2554
ませんかね	-11.2555
RI	-11.2557
まない	-11.2563
ええんやろ	-11.2566
だったりする	-11.2566
しゃん	-11.2567
枯れ	-11.2569
スキ	-11.257
と変わらん	-11.257
セレ	-11.2572
のになあ	-11.2575
で済む	-11.2579
ポジる	-11.258
持っとる	-11.2581
に当て	-11.2583
ってなって	-11.2585
どり	-11.2586
時間帯	-11.2588
数年前	-11.2591
買えば	-11.2594
KO	-11.2597
そうなんや	-11.2598
言い過ぎ	-11.2604
余計	-11.2612
ココ	-11.2612
どうだった	-11.2623
高そう	-11.2634
んじゃないですかね	-11.2639
率高い	-11.2643
少なくて	-11.2643
すまんやで	-11.2644
稼	-11.2644
やっとった	-11.2645
悪そう	-11.2646
土曜日	-11.2652
した奴	-11.2653
聞	-11.2653
どうなったん	-11.2654
江戸	-11.2655
帰って来	-11.2658
ピカ	-11.2658
惑	-11.2662
宣	-11.2663
鹿	-11.2663
徹	-11.2664
タイガース	-11.2664
先進国	-11.2664
グローブ	-11.2664
堕	-11.2664
ﾆ	-11.2664
♦	-11.2664
オシャレ	-11.2664
味噌汁	-11.2664
婆	-11.2664
鵜久森	-11.2664
アンパンマン	-11.2664
フェデラー	-11.2664
≧	-11.2664
髭	-11.2664
いよいよ	-11.2664
ボカロ	-11.2664
きょう	-11.2664
翻訳	-11.2664
ムード	-11.2664
睡眠	-11.2664
めんどい	-11.2664
抜群	-11.2664
パワポケ	-11.2665
斉藤	-11.2665
季節	-11.2665
栃木	-11.2665
民主主義	-11.2665
ダウンロード	-11.2665
幻想	-11.2665
資源	-11.2665
賢介	-11.2665
姉妹	-11.2665
シンプル	-11.2665
資料	-11.2665
安泰	-11.2665
糖質	-11.2665
すごーい	-11.2666
録音	-11.2666
打ちそう	-11.2666
暴走	-11.2666
欲しくない	-11.2666
消滅	-11.2667
関節	-11.2667
整形	-11.2667
オフに	-11.2667
顔真っ赤	-11.2668
IQ	-11.2668
ダフィー	-11.2668
バンバン	-11.2668
見極め	-11.2668
アルコール	-11.2668
ネッコ	-11.2668
上がらない	-11.2669
翌日	-11.2669
属性	-11.2669
散ら	-11.267
せよ	-11.267
キャップ	-11.267
づら	-11.267
ライオン	-11.2671
コスプレ	-11.2671
一人暮らし	-11.2672
激しい	-11.2673
圧勝	-11.2674
クッキー	-11.2674
道路	-11.2674
金銭	-11.2675
▁そう言えば	-11.2675
撃ち	-11.2676
▁ただいま	-11.2676
ハンド	-11.2677
ポーズ	-11.2678
不良	-11.2678
たのむ	-11.2678
建てた	-11.2679
年寄り	-11.268
パーツ	-11.268
数値	-11.268
ほんとすき	-11.2681
じゅう	-11.2683
連合	-11.2683
メント	-11.2684
打撃コーチ	-11.2685
打力	-11.2685
るなよ	-11.2685
おけば	-11.2686
バレる	-11.2687
してきて	-11.2687
本能	-11.2689
みかん	-11.269
`)	-11.269
城所	-11.2692
目立つ	-11.2694
ありがとうやで	-11.2695
任せろ	-11.2696
んなや	-11.2696
im	-11.2696
.27	-11.2704
使ってない	-11.2705
んかいな	-11.2715
体型	-11.2716
歩かせ	-11.2717
再開	-11.2719
大丈夫なん	-11.2721
なくなったら	-11.2724
見てなかった	-11.2724
大引	-11.2725
難民	-11.2725
悩んで	-11.2728
歌手	-11.2731
選ば	-11.2733
切れて	-11.2734
思わない	-11.2737
真中	-11.2738
舞い	-11.2738
分くらい	-11.2738
焼いて	-11.2739
if	-11.2741
持ち上げ	-11.2742
調子いい	-11.2744
寄って	-11.2746
人とも	-11.2748
大成	-11.2749
してても	-11.275
ウー	-11.2752
しようとして	-11.2754
する事	-11.2758
られとる	-11.2759
済む	-11.2759
さっきから	-11.2764
与えられ	-11.2766
マイク	-11.2766
残った	-11.2768
4000	-11.277
届け	-11.2774
になってない	-11.2775
奥さん	-11.2776
なんというか	-11.2776
決まってる	-11.2781
を求めて	-11.2785
怪し	-11.2786
どうすんの	-11.2786
にくく	-11.2788
出来たら	-11.2788
何もない	-11.2788
お店	-11.2793
寝てる	-11.2794
しとるやんけ	-11.2797
溜め	-11.2799
他ファン	-11.2804
キット	-11.2811
聴く	-11.2812
事ある	-11.2817
ってどうやって	-11.2823
粘	-11.2823
8000	-11.2824
のは事実	-11.2825
win	-11.2826
不利	-11.2826
荒木専	-11.2827
いっぱいある	-11.2832
が足りない	-11.2832
クマ	-11.284
もらってる	-11.2844
がナンバーワン	-11.2853
次回	-11.2855
いるんか	-11.2864
学校に	-11.2865
粘って	-11.2873
香川	-11.2878
サメ	-11.2883
させられた	-11.2886
ネス	-11.289
溶	-11.2895
でもないし	-11.2901
課	-11.2903
インター	-11.2906
されたり	-11.2907
無駄な	-11.291
忘れる	-11.2911
すけ	-11.2913
ないでクレメンス	-11.2914
真顔	-11.2916
治る	-11.2921
があったから	-11.2922
スマホで	-11.2925
飲みたい	-11.2928
あったよな	-11.2928
ほーん	-11.2929
ッテ	-11.2932
の良さ	-11.2935
よかったのに	-11.2937
の強さ	-11.2938
臣	-11.2938
やったり	-11.2939
釜	-11.2947
炊	-11.2947
敬	-11.2948
糖	-11.2949
勘	-11.2949
奏	-11.295
排	-11.295
序	-11.295
オワコン	-11.295
トヨタ	-11.295
隆	-11.295
汰	-11.295
に決まっとる	-11.295
巧	-11.295
槍	-11.295
お絵かき	-11.295
ぜんぜん	-11.295
スッキリ	-11.295
メッセージ	-11.295
未成年	-11.295
短期決戦	-11.295
賊	-11.295
キヨシ	-11.295
嫌がらせ	-11.295
よろしい	-11.295
蔑称	-11.295
スアレス	-11.295
お姉さん	-11.295
胴上げ	-11.295
民進党	-11.295
追求	-11.295
バラバラ	-11.2951
呼吸	-11.2951
徒歩	-11.2951
博士	-11.2951
トマト	-11.2951
石垣	-11.2951
おもちゃ	-11.2951
かもしれへん	-11.2951
追放	-11.2952
水曜	-11.2952
そっくり	-11.2952
電源	-11.2952
サラダ	-11.2952
業務	-11.2953
アッネ	-11.2953
キャリア	-11.2953
ハッピー	-11.2953
捕まえ	-11.2953
永江	-11.2953
しょっちゅう	-11.2953
良ければ	-11.2953
黄金	-11.2954
.000	-11.2954
メガネ	-11.2954
シャワー	-11.2954
いらっしゃい	-11.2954
爆笑	-11.2954
身体能力	-11.2954
成功する	-11.2955
ママ	-11.2955
有吉	-11.2955
アレンジ	-11.2955
の割合	-11.2955
安藤	-11.2955
ギータ	-11.2956
再放送	-11.2956
食料	-11.2957
オフ会	-11.2957
宮城	-11.2957
冷たい	-11.2957
取得	-11.2958
ジブリ	-11.2958
成り立	-11.2958
捨てた	-11.2959
姿勢	-11.2959
トップクラス	-11.296
並び	-11.296
行きそう	-11.296
説教	-11.296
足速い	-11.2961
エヴァ	-11.2961
信長	-11.2961
学習	-11.2961
シングル	-11.2962
二郎	-11.2963
土曜	-11.2963
練習しろ	-11.2964
苦戦	-11.2964
弾道	-11.2966
知らんのか	-11.2967
スラム	-11.2967
日記	-11.2968
難しそう	-11.2968
そろ	-11.2969
欲しいけど	-11.2971
SA	-11.2971
ふざけんな	-11.2972
したほうがええ	-11.2977
これくらい	-11.2977
々しい	-11.2977
が多くて	-11.2978
支持率	-11.298
南海	-11.2981
二塁打	-11.2984
▁それにしても	-11.2985
下手したら	-11.2986
新しく	-11.2987
レーション	-11.2987
出ますよ	-11.2988
エグ	-11.2989
酔い	-11.2992
って言われてる	-11.2994
いいところ	-11.2995
持ってた	-11.2997
掘り	-11.2999
木下	-11.3
シート	-11.3002
ip	-11.3008
ごはん	-11.3008
内田	-11.3009
年末	-11.3011
どういう意味	-11.3013
大麻	-11.3013
コツ	-11.3019
走った	-11.302
全勝	-11.3024
間違ってない	-11.3025
与	-11.3028
存在する	-11.3031
大概	-11.3032
せなアカン	-11.3033
ムリ	-11.3033
た方がいい	-11.3036
受かる	-11.3036
お笑い	-11.3042
撮って	-11.3045
にせよ	-11.3046
手間	-11.3046
作ったら	-11.3049
体操	-11.3049
〜〜	-11.3057
アベ	-11.3057
いったい	-11.3067
引っ張る	-11.307
DA	-11.307
盛り上げ	-11.3073
思ったより	-11.3081
おけ	-11.3083
ではなかった	-11.3087
起こる	-11.3087
通ってる	-11.309
じゃなかったか	-11.3091
こうなった	-11.3092
年契約	-11.3094
驚き	-11.3095
出してくれ	-11.3096
高くない	-11.3101
荒れて	-11.3102
大戦	-11.3103
働いてる	-11.3104
垂れ	-11.3105
挙げて	-11.3118
悲しくなる	-11.3124
近年	-11.313
おおおお	-11.3131
選ばれて	-11.3132
されてて	-11.3135
やったはず	-11.3136
割れ	-11.3138
を選ぶ	-11.3139
下げる	-11.3152
１１	-11.3162
抑えてる	-11.3163
なんやろなあ	-11.3163
ポロ	-11.3174
してたんや	-11.3178
すきやで	-11.318
嫌だ	-11.3181
度目	-11.3185
段階で	-11.3186
未経験	-11.3195
か知らんが	-11.3197
はワイだけ	-11.3202
そういえば	-11.3204
材料	-11.3209
見てくれ	-11.3209
したろか	-11.3211
良いこと	-11.3211
らなきゃ	-11.3212
終わってから	-11.3212
が悪かった	-11.3212
od	-11.3215
はやい	-11.3217
楽天ファン	-11.3218
試す	-11.3221
ギャラ	-11.3222
だという	-11.3225
休ませて	-11.3228
過去に	-11.3228
あかんねん	-11.3231
備え	-11.3232
プレイヤー	-11.3237
垣	-11.3237
支配	-11.3238
弓	-11.324
♥♥	-11.324
ふく	-11.324
邪	-11.3242
凍	-11.3243
仙	-11.3243
ｭ	-11.3244
尼	-11.3244
捻	-11.3244
旗	-11.3244
牙	-11.3244
ユーチューバー	-11.3244
挿	-11.3244
鋭	-11.3244
入れ替わって	-11.3244
土下座	-11.3244
祐	-11.3244
カジノ	-11.3244
ゲス顔	-11.3244
傘	-11.3244
机	-11.3244
タクシー	-11.3244
廣瀬	-11.3244
隅	-11.3244
お気に入り	-11.3244
貴重な	-11.3244
もう我慢できん	-11.3244
ファミマ	-11.3244
のび太	-11.3245
頑張れば	-11.3245
ホラ	-11.3245
講義	-11.3245
ようなこと	-11.3245
語録	-11.3245
商売	-11.3245
止まり	-11.3246
ＣＳ	-11.3246
栗原	-11.3246
絶滅	-11.3246
カナダ	-11.3247
混乱	-11.3247
遺伝子	-11.3247
卓球	-11.3247
やめとけ	-11.3248
ate	-11.3248
夜勤	-11.3248
賃金	-11.3248
ﾘﾘ	-11.3248
油断	-11.3249
超絶	-11.3249
許してクレメンス	-11.3249
じょう	-11.3249
解放	-11.325
黒歴史	-11.325
気付いた	-11.325
コースケ	-11.3251
偽物	-11.3251
不要	-11.3251
じゅ	-11.3253
建物	-11.3253
楽器	-11.3254
書かれて	-11.3254
差し上げ	-11.3254
禿げ	-11.3254
気を付け	-11.3255
プレーオフ	-11.3255
学費	-11.3255
車両	-11.3256
野手陣	-11.3256
福原	-11.3257
野球ファン	-11.3257
ますわよ	-11.3258
させよう	-11.3259
になっちゃう	-11.3259
大変そう	-11.3262
用語	-11.3262
貴様	-11.3263
(ﾟ)(ﾟ)「	-11.3264
井口	-11.3264
スタンス	-11.3265
ピース	-11.3267
出される	-11.3267
肉体	-11.3268
ポジれる	-11.3269
夏場	-11.3271
わかってない	-11.3272
GM	-11.3273
動かす	-11.3273
各球団	-11.3274
面白さ	-11.3275
店長	-11.3275
赤星	-11.3276
正体	-11.3276
した方がいい	-11.3276
やねんけど	-11.3276
お題	-11.3276
合体	-11.3278
に行けば	-11.3284
除外	-11.3286
ゴリ	-11.3286
起きたら	-11.3289
わけがない	-11.3291
探せば	-11.3292
言われとる	-11.3293
OW	-11.3294
一ヶ月	-11.3299
2005	-11.3299
立浪さん	-11.3299
イライラする	-11.3301
参戦	-11.3301
ナメ	-11.3305
気がしてきた	-11.3306
もらえない	-11.3307
バク	-11.3319
飛ばして	-11.332
199	-11.332
嫌われて	-11.3322
しとんねん	-11.3325
取れん	-11.3328
親子	-11.3329
性別	-11.3329
が起こる	-11.3333
いなくなって	-11.3333
下がり	-11.3334
うまかった	-11.3335
実戦	-11.3339
引け	-11.3341
見えた	-11.3344
86	-11.3347
するほど	-11.3348
込める	-11.3348
ほっと	-11.3351
レジ	-11.3354
成功率	-11.3354
見に行く	-11.3355
しようとした	-11.3357
キル	-11.3357
行ったけど	-11.3359
優勝したら	-11.3362
一枚	-11.3364
学年	-11.3365
よくわからんけど	-11.3369
あがる	-11.3372
分からんわ	-11.3374
参加する	-11.3376
思い出したわ	-11.3377
握り	-11.3379
飲める	-11.3382
ワッ	-11.3385
ちな虎	-11.3392
んちゃうん	-11.3392
少しでも	-11.3394
聞かれた	-11.3394
居て	-11.3398
産まれ	-11.34
ウト	-11.3401
まで行く	-11.3402
外れる	-11.3402
冷め	-11.3406
したいなら	-11.3406
揺れ	-11.3407
なのだ	-11.3417
調子に乗	-11.3417
無いんか	-11.3423
まだマシ	-11.3425
おかしくない	-11.3428
普段から	-11.3435
こっちが	-11.3437
やつおらん	-11.3438
なのでセーフ	-11.3441
10000	-11.3441
ググって	-11.3443
に乗る	-11.3445
番打者	-11.3448
青い	-11.3452
リーチ	-11.3453
ラウンド	-11.3457
中途半端な	-11.3458
アカンわ	-11.346
ありえん	-11.3468
を求める	-11.347
ss	-11.3473
1/3	-11.3473
おおい	-11.3473
中国人	-11.3475
のは分かる	-11.3476
時くらい	-11.3489
ギア	-11.3492
もう寝る	-11.3493
のは間違いない	-11.3496
のはわかる	-11.3497
空母	-11.3516
慣れる	-11.3516
始めたら	-11.3517
昼飯	-11.3519
んでない	-11.3522
んですの	-11.3522
野球部	-11.3527
よほど	-11.3535
こないだ	-11.3537
いるのは	-11.3538
りながら	-11.3538
かからん	-11.3542
稲	-11.3544
俊	-11.3544
阿	-11.3544
go	-11.3544
呂	-11.3546
訪	-11.3547
ニッコマ	-11.3547
ベネズエラ	-11.3547
植民地	-11.3547
お好み焼き	-11.3547
ヨッメ	-11.3547
シナリオ	-11.3547
吉祥寺	-11.3547
壮	-11.3547
餅	-11.3547
❤	-11.3547
これもうわかんねぇな	-11.3547
エネルギー	-11.3547
レンタル	-11.3547
丹	-11.3547
拍	-11.3547
泡	-11.3547
爪	-11.3547
蘭	-11.3547
那	-11.3547
ｩｩｩ	-11.3547
ｩｯｯｯ	-11.3547
<	-11.3547
ジジイ	-11.3547
屁	-11.3547
ポルノ	-11.3547
灰	-11.3547
普及	-11.3547
サントス	-11.3547
おかえり	-11.3547
廣岡	-11.3547
軒並み	-11.3547
偶然	-11.3547
比屋根	-11.3548
眼鏡	-11.3548
許可	-11.3548
逸材	-11.3548
整備	-11.3548
統計	-11.3548
当たらない	-11.3548
おしっこ	-11.3548
ファイヤー	-11.3549
台詞	-11.3549
落ち着く	-11.3549
渋谷	-11.3549
認知	-11.3549
知恵	-11.3549
教養	-11.355
セイバー	-11.355
得点圏打率	-11.355
常連	-11.355
理科	-11.3551
バックアップ	-11.3551
藤岡	-11.3551
一覧	-11.3551
・`	-11.3551
早慶	-11.3552
オーナー	-11.3552
書類	-11.3552
自宅	-11.3552
藤村	-11.3553
ゴースト	-11.3553
戦艦	-11.3555
最弱	-11.3556
光成	-11.3556
る気せーへん	-11.3556
部隊	-11.3556
寺原	-11.3556
単なる	-11.3557
繋がる	-11.3557
居場所	-11.3558
岡島	-11.3558
ガッツリ	-11.3559
おまえ	-11.3559
出勤	-11.3559
平井	-11.3559
費用	-11.3559
あきら	-11.3561
主役	-11.3562
毎試合	-11.3563
不明	-11.3564
させられる	-11.3564
おったけど	-11.3566
楽天戦	-11.3567
守備位置	-11.3567
逃げた	-11.3568
起こった	-11.3568
オレ	-11.3569
炎上した	-11.3569
向上	-11.3569
活躍してる	-11.3569
大したことない	-11.357
初めて聞いた	-11.3571
独り	-11.3572
申し訳	-11.3572
あるいは	-11.3573
西武ドーム	-11.3573
料金	-11.3573
一族	-11.3574
全敗	-11.3574
く見える	-11.3576
中卒	-11.3579
気がしない	-11.3579
タチ	-11.358
手に入れ	-11.358
分野	-11.358
本編	-11.3581
打てれば	-11.3582
全身	-11.3582
やったんやけど	-11.3582
黒木	-11.3583
手紙	-11.3584
出世	-11.3588
th	-11.3588
越える	-11.359
若月	-11.3592
▁こういう時	-11.3601
やられて	-11.3604
折り	-11.3605
内部	-11.3606
熱く	-11.3607
知らず	-11.3607
間隔	-11.3607
細い	-11.3608
本土	-11.361
1500	-11.361
漫画家	-11.361
無名	-11.3617
ミング	-11.3619
セント	-11.3619
▁その前に	-11.362
大変やな	-11.3621
行けない	-11.3623
ドラム	-11.3625
後藤	-11.363
待た	-11.3632
戦後	-11.3638
吐く	-11.3639
打たせて	-11.3643
読めん	-11.3644
起こして	-11.3645
おすすめやで	-11.3647
られそう	-11.3648
絡んで	-11.3648
代表戦	-11.3648
うまいこと	-11.365
じゃないですか	-11.365
目線	-11.3651
天使	-11.3655
一時間	-11.3657
上田	-11.3662
IT	-11.3663
いってない	-11.3663
鷹ファン	-11.3665
次の日	-11.3667
いけた	-11.3669
あるんやけど	-11.367
行けそう	-11.3676
キープ	-11.3678
悪くなかった	-11.3682
ひど	-11.3686
万ぐらい	-11.3688
誰だ	-11.3695
刺さ	-11.3698
ああああああああ	-11.3703
ああああ	-11.3705
戻ってきて	-11.3705
開幕から	-11.3711
被る	-11.3712
無理やわ	-11.3718
塁審	-11.3719
ツイ	-11.3727
聞いてみ	-11.3729
を超える	-11.3734
起こした	-11.3745
かもわからん	-11.3747
いいよな	-11.3752
とは思	-11.3753
ビック	-11.3754
あかんか	-11.376
伸びた	-11.3768
壊れた	-11.3778
▁ロッテさん	-11.3786
意外に	-11.3787
サイコ	-11.3791
方がマシ	-11.38
並みに	-11.3804
に戻って	-11.3814
はもちろん	-11.3816
向いてる	-11.3817
つまらな	-11.3817
大将	-11.3817
数日	-11.3824
くなったら	-11.3824
にもなる	-11.3826
季	-11.3827
作ってた	-11.3833
シャリ	-11.3839
強打	-11.3839
il	-11.3843
梨	-11.3845
立岡	-11.3849
否	-11.3853
標	-11.3855
ヲ	-11.3856
うらやま	-11.3858
烈	-11.3858
Ｉ	-11.3859
Ｋ	-11.386
軟	-11.386
*´◯`*)	-11.386
棚	-11.386
ｪ	-11.386
桂	-11.386
涼	-11.386
著作権	-11.386
ガッカリ	-11.386
捗	-11.386
横須賀	-11.386
DVD	-11.386
セットアッパー	-11.386
勿体無い	-11.386
履正社	-11.386
彩	-11.386
述	-11.386
バウンド	-11.386
思い浮かば	-11.386
憂	-11.386
燕	-11.386
aku	-11.386
ヒッター	-11.386
ブチギレ	-11.386
凶	-11.386
吊	-11.386
琴奨菊	-11.386
▼	-11.386
とは言っていない	-11.386
殿堂入り	-11.386
辛辣	-11.386
ジエンゴ	-11.386
応募	-11.386
把握	-11.386
イップス	-11.386
震災	-11.386
なんまめ	-11.386
封印	-11.386
だんだん	-11.386
ハッキリ	-11.386
滅亡	-11.3861
了解	-11.3861
魔境	-11.3861
キンタマ	-11.3861
耐性	-11.3861
地下鉄	-11.3861
うっかり	-11.3861
▁★(	-11.3862
狩野	-11.3862
お試し	-11.3862
配置	-11.3862
少しずつ	-11.3862
速球派	-11.3862
有効	-11.3862
煙草	-11.3863
独自	-11.3863
痛めた	-11.3864
不可	-11.3864
シンカー	-11.3864
編成	-11.3865
やべえ	-11.3865
ループ	-11.3866
選び	-11.3867
豊作	-11.3868
原爆	-11.387
と思われる	-11.3871
分裂	-11.3871
主観	-11.3872
リアルタイム	-11.3873
森友	-11.3873
白星	-11.3874
直撃	-11.3875
玄人	-11.3876
角度	-11.3877
ザラ	-11.3878
無得点	-11.3879
金属	-11.3879
ネック	-11.3879
でええから	-11.388
合法	-11.388
セール	-11.3881
すんなや	-11.3882
インフル	-11.3882
調理	-11.3884
万全	-11.3887
2009	-11.3892
▁マジかよ	-11.3892
上がってくる	-11.3892
マイコ	-11.3893
利き	-11.3893
してもらった	-11.3893
▁おはよう	-11.3895
欲しいンゴねぇ	-11.3898
すいません	-11.3899
は絶対に	-11.39
植え	-11.3901
プレミアム	-11.3903
回終了	-11.3904
頼んで	-11.3909
ガール	-11.3909
かもしらん	-11.3911
マップ	-11.3912
マグロ	-11.3915
アキ	-11.3919
キタ	-11.3922
積んで	-11.3922
何のために	-11.3923
同期	-11.3925
はおらんのか	-11.3926
学力	-11.3926
はずなのに	-11.3926
おらへん	-11.3928
手取り	-11.3933
横浜戦	-11.3942
嫌いじゃない	-11.3944
滑り	-11.3945
復活した	-11.3946
ぼく	-11.3953
本音	-11.3955
いつになったら	-11.3959
眠い	-11.3962
羨ましいわ	-11.3962
出れば	-11.3964
井上	-11.3964
だと思うけど	-11.3964
やきう民	-11.3965
マサ	-11.3972
まとめ民	-11.3973
BF	-11.3975
気持ち悪	-11.3976
あったのに	-11.3979
かったんやろ	-11.398
打つ確率	-11.3982
最多勝	-11.3982
▁これマジ	-11.3982
ヤス	-11.3985
出来なかった	-11.3986
慣れてる	-11.399
って言うほど	-11.3992
あげよう	-11.3996
ry	-11.3996
貧乏人	-11.3996
ババ	-11.3997
降りる	-11.4002
切り替えて	-11.4002
年上	-11.4006
メイド	-11.4008
見れた	-11.4009
ｗｗｗｗｗｗｗｗ	-11.4021
溜	-11.4027
片方	-11.403
だけマシ	-11.4041
ふた	-11.4046
締	-11.4049
居らん	-11.4055
１４	-11.4056
覚えとる	-11.4057
使えそう	-11.4062
売れて	-11.4065
でもなんでも	-11.4074
だぜ	-11.4076
考えてみ	-11.4078
大炎上	-11.4095
カミ	-11.4102
IP	-11.4103
読んでる	-11.4108
すればええやん	-11.4111
育った	-11.4112
しまくり	-11.4117
名曲	-11.412
すりゃええ	-11.4125
思ってない	-11.413
題	-11.4131
ようだ	-11.4132
売れない	-11.4133
って言われたら	-11.4134
向いてない	-11.4135
慣れた	-11.4141
本目	-11.4144
西武ファン	-11.4145
実感	-11.415
してる人	-11.4151
時間くらい	-11.4155
暑	-11.4156
ええとこ	-11.4159
全力	-11.4162
プチ	-11.4163
ボコ	-11.4164
してくれない	-11.4165
になってもうた	-11.4165
やってるやつ	-11.4168
縛	-11.4173
黄	-11.4176
泳	-11.4177
入れてる	-11.4177
負け方	-11.4178
象	-11.418
わけわからん	-11.418
忙	-11.4181
ｬ	-11.4181
懲	-11.4182
沖	-11.4182
卑	-11.4182
ヤフオク	-11.4182
キムタク	-11.4182
ヅ	-11.4182
行方不明	-11.4182
コーディエ	-11.4182
乃	-11.4182
嘉	-11.4182
iPhone	-11.4182
アドゥワ	-11.4182
アナウンサー	-11.4182
タイブレーク	-11.4182
ノムケン	-11.4182
弘	-11.4182
符	-11.4182
‼	-11.4182
バラエティ	-11.4182
墓	-11.4182
粗	-11.4182
グダグダ	-11.4182
悠	-11.4182
純粋に	-11.4182
ステーキ	-11.4182
剃	-11.4182
牌	-11.4182
マトモ	-11.4182
ROM	-11.4182
ムエンゴ	-11.4182
衰退	-11.4182
訓練	-11.4182
提示	-11.4183
与党	-11.4183
そこら辺	-11.4183
招集	-11.4183
と思いました	-11.4183
栄養	-11.4184
すっかり	-11.4184
生活保護	-11.4184
そっかぁ	-11.4184
気楽に	-11.4184
願望	-11.4184
藤嶋	-11.4184
洗脳	-11.4185
させたい	-11.4186
になってしまう	-11.4186
聞いたけど	-11.4186
遺産	-11.4186
デッキ	-11.4186
焼き鳥	-11.4186
読書	-11.4186
果たして	-11.4186
せっかく	-11.4186
▁ただでさえ	-11.4186
益田	-11.4186
皮肉	-11.4186
グルメ	-11.4187
繋がり	-11.4187
突入	-11.4188
やらかす	-11.4188
日目	-11.4188
球威	-11.4188
哀れ	-11.4188
荷物	-11.4189
鈴木大地	-11.419
オンリー	-11.4191
珍しく	-11.4192
世界史	-11.4192
美味しく	-11.4193
いたっけ	-11.4195
スレを立て	-11.4195
ことあるんか	-11.4196
南米	-11.4196
▁ほなまた	-11.4197
PV	-11.4197
仲良い	-11.4198
みたいな顔	-11.42
っっっ	-11.42
例えば	-11.42
外交	-11.4201
小杉	-11.4202
優遇	-11.4203
ホット	-11.4205
バブル	-11.4205
すまんかった	-11.4206
キミ	-11.4207
食い物	-11.4207
早打ち	-11.4208
ればいいのに	-11.421
自作	-11.4211
新たな	-11.4212
ガード	-11.4214
新外国人	-11.4215
松永	-11.4217
エグい	-11.4217
浅い	-11.422
広がる	-11.422
意味がわからん	-11.4223
親会社	-11.4225
話せる	-11.4229
一周	-11.423
よりかは	-11.4233
訳じゃない	-11.4235
ってどういうこと	-11.4237
テク	-11.4238
馬場	-11.424
途端に	-11.424
どう見ても	-11.4241
op	-11.4242
という意味	-11.4242
格差	-11.4245
中退	-11.4245
そんだけ	-11.4245
メロディ	-11.4248
解消	-11.4249
何度か	-11.4255
ちゃいけない	-11.4256
やってるんや	-11.4259
の言うこと	-11.4259
下げた	-11.4259
意味ある	-11.426
現地で	-11.427
持ってくる	-11.4271
ひどかった	-11.4271
寝ろ	-11.4275
打てなかった	-11.4276
勝ち越して	-11.4281
悪口	-11.4284
になってて草	-11.4287
っていうのが	-11.4287
打ち上げ	-11.4288
できひん	-11.4291
こいよ	-11.4292
合戦	-11.4292
こんな時間に	-11.4298
海軍	-11.43
固い	-11.4301
手前	-11.4304
お手	-11.431
駅前	-11.4311
全球団	-11.4314
やばすぎ	-11.4314
ような奴	-11.4319
指名した	-11.4321
じゃねえか	-11.4322
好きになった	-11.4328
感動した	-11.4329
▁んー	-11.4332
あああ	-11.4334
気持ちいい	-11.4337
理解できん	-11.4342
一般的	-11.4343
永久	-11.4349
出してた	-11.4352
積極的に	-11.4358
比べる	-11.4365
その人	-11.4366
負けそう	-11.4368
向こうの	-11.437
てもうた	-11.4377
ダメだった	-11.4378
ええんやないか	-11.4379
勘違いしてる	-11.4381
干され	-11.4385
いなかったら	-11.4386
デフォ	-11.439
極端な	-11.4397
戻して	-11.4399
知ってる人	-11.4402
チク	-11.4406
我慢でき	-11.4409
いて草	-11.441
勤め	-11.441
強さ	-11.4411
いるんだ	-11.4413
点が入	-11.4415
求める	-11.4416
デュ	-11.4417
もおかしくない	-11.4417
伸びて	-11.4419
返した	-11.4422
今成	-11.4423
戦前	-11.443
wwwwwwwww	-11.4441
すらない	-11.4443
ダンジョン	-11.4443
やつもおる	-11.4447
隔	-11.445
いいんじゃね	-11.4453
ピンク	-11.4455
良かったのに	-11.4458
体格	-11.446
やし多少はね	-11.4462
FC	-11.4464
になります	-11.4465
震	-11.4469
闇深	-11.4469
脚本	-11.4472
掛	-11.4475
わからんかった	-11.4477
してもらう	-11.448
降りた	-11.4483
ボコられ	-11.4488
脈	-11.4491
ムーン	-11.4492
実写	-11.4492
菓子	-11.4493
焼け	-11.4497
拾って	-11.4502
昇	-11.4508
喫煙	-11.4509
騎	-11.4509
ハナ	-11.451
了	-11.4514
できんのか	-11.4514
綱	-11.4515
ボード	-11.4515
綾	-11.4515
残してる	-11.4515
錦	-11.4516
駐	-11.4516
q	-11.4516
荘	-11.4516
タレント	-11.4516
敏	-11.4516
癌	-11.4516
NFL	-11.4516
コンプレックス	-11.4516
ピュア	-11.4516
主題歌	-11.4516
傑	-11.4516
委員会	-11.4516
蛇	-11.4516
カピバラ	-11.4516
ドヤ顔	-11.4516
廉	-11.4516
擬人化	-11.4516
滅茶苦茶	-11.4516
TOKIO	-11.4516
ひょっとして	-11.4516
アーティスト	-11.4516
ボーカル	-11.4516
塔	-11.4516
歪	-11.4516
真っ先に	-11.4516
賭博	-11.4516
銘	-11.4516
スラッガー	-11.4516
少子化	-11.4516
崇	-11.4516
洲	-11.4516
猫屋敷	-11.4516
顎	-11.4516
ｼｭｳﾍｲ	-11.4516
ﾓ	-11.4516
塞	-11.4516
ヤスアキ	-11.4516
詳細	-11.4516
アライさん	-11.4516
の後釜	-11.4516
ガラガラ	-11.4516
コバヤシィ	-11.4516
独裁	-11.4516
吹き替え	-11.4516
過大評価	-11.4516
なるべく	-11.4516
派閥	-11.4516
隼太	-11.4516
火曜	-11.4516
深刻	-11.4517
兼任	-11.4517
選考	-11.4517
昇進	-11.4517
由来	-11.4517
九鬼	-11.4517
ドロップ	-11.4517
テレ東	-11.4518
バージョン	-11.4518
現地観戦	-11.4518
分かりやすい	-11.4518
ノーマル	-11.4518
ブースト	-11.4519
世界大戦	-11.4519
退団	-11.4519
箱根	-11.4519
▁どうでもいいけど	-11.4519
強奪	-11.4519
立ち上がり	-11.4519
急いで	-11.452
怪物	-11.452
跳ね	-11.4521
実在	-11.4521
怖くない	-11.4521
判断する	-11.4521
新垣	-11.4522
魔王	-11.4522
不便	-11.4522
ハイライト	-11.4523
論理	-11.4524
争う	-11.4525
王国	-11.4525
公平	-11.4525
実現	-11.4525
でけへん	-11.4526
ええんやろか	-11.4526
札ド	-11.4527
みたいな風潮	-11.4527
レオ	-11.4527
自治	-11.4527
かせて	-11.4528
一人称	-11.4529
フォン	-11.4529
ファイル	-11.4531
右腕	-11.4531
当初	-11.4533
敗北	-11.4533
フィン	-11.4534
打てる捕手	-11.4534
発動	-11.4534
大衆	-11.4535
アウトロー	-11.4535
二世	-11.4537
対立	-11.4538
先発陣	-11.4538
ごう	-11.4538
ナンパ	-11.4539
会える	-11.4539
国際試合	-11.454
うせやろ	-11.4541
板山	-11.4542
見かける	-11.4543
決戦	-11.4547
観れる	-11.4548
よくわからない	-11.455
昨日から	-11.4551
使ったら	-11.4555
じゃなきゃ	-11.4555
ぜひ	-11.4557
事務	-11.4557
ウィー	-11.4559
みたいなもんやし	-11.456
復帰した	-11.4561
お風呂	-11.4567
評価されて	-11.4568
くっさい	-11.4568
シャル	-11.457
日曜日	-11.457
扱いされる	-11.4572
あんねん	-11.4572
時給	-11.4574
谷間	-11.4575
打たれたら	-11.4578
nd	-11.458
三好	-11.4582
終戦	-11.4585
バンク	-11.459
だったような	-11.4595
王子	-11.4602
買ったら	-11.4604
になりました	-11.4606
まぁまぁ	-11.4611
じょ	-11.4612
消えろ	-11.4612
あがって	-11.4614
見かけた	-11.4615
せえや	-11.4618
選ばれる	-11.4618
ゼル	-11.462
のは当たり前	-11.4633
コーン	-11.4635
空間	-11.4637
ed	-11.464
絶望的	-11.4642
守ってる	-11.4644
クリス	-11.4644
理解できない	-11.4645
ありました	-11.4647
のはええけど	-11.4647
打ててない	-11.4648
使われてる	-11.4649
消して	-11.4651
干し	-11.466
的なもの	-11.4665
妙な	-11.4672
点とれ	-11.4679
解決する	-11.4681
右手	-11.4683
ちゃうかった	-11.4683
アテ	-11.4685
あった気がする	-11.4689
提	-11.4689
人気ある	-11.4689
の方が好き	-11.469
嫁さん	-11.4696
ニコ	-11.4697
しておく	-11.4698
って聞いたけど	-11.4705
えへん	-11.4707
繰り返して	-11.4709
じゃなければ	-11.4715
から仕方ない	-11.4736
可愛く	-11.4739
CG	-11.4747
遅かった	-11.4747
カチ	-11.4754
って言うけど	-11.4759
もらい	-11.4771
使うのは	-11.4771
しないのか	-11.4775
同人	-11.4777
かったりする	-11.4785
ええと思うけど	-11.4787
凄すぎ	-11.4792
寿司屋	-11.4793
メラ	-11.4802
なんでもええ	-11.4804
投げたら	-11.481
安くて	-11.481
ほしくない	-11.4813
やりたいこと	-11.4813
ルーキ	-11.4817
ハンデ	-11.482
美味そう	-11.4821
したもの	-11.4824
育てられ	-11.483
枚目	-11.483
いっそ	-11.4832
消えてる	-11.4834
真面目な	-11.4837
まれてる	-11.4845
メンデス	-11.4847
その子	-11.4853
おおおおおおおおおお	-11.4856
録	-11.4856
挑	-11.4856
スペース	-11.4857
係	-11.4859
ｻ	-11.486
征	-11.486
誌	-11.486
都道府県	-11.486
ナチュラル	-11.486
晋	-11.486
旬	-11.486
曹	-11.486
鳩	-11.486
ポテンシャル	-11.486
キムチ	-11.486
現実逃避	-11.486
笛	-11.486
譜	-11.486
頑張ろう	-11.486
MARCH	-11.486
とはなんだったのか	-11.486
ウェルカム	-11.486
メッセンジャー	-11.486
励	-11.486
畝	-11.486
舐めプ	-11.486
零	-11.486
ﾔ	-11.486
後継者	-11.486
患	-11.486
暇つぶし	-11.486
麗	-11.486
三冠王	-11.486
伴	-11.486
キックボクシング	-11.4861
警戒	-11.4861
爆誕	-11.4861
遊べる	-11.4861
師匠	-11.4861
炭酸	-11.4861
準規	-11.4861
フェイス	-11.4861
ヴォ	-11.4861
ゴリ押し	-11.4861
適応	-11.4861
燃料	-11.4861
池袋	-11.4861
快適	-11.4861
戒め	-11.4862
ＦＡ	-11.4862
暗記	-11.4862
使おう	-11.4862
持たせ	-11.4862
お陰で	-11.4862
速攻	-11.4862
脇谷	-11.4862
▁サンキューガッツ	-11.4862
完走	-11.4863
押さえ	-11.4863
付き合う	-11.4863
レコ	-11.4863
植物	-11.4863
絶不調	-11.4863
仕掛け	-11.4863
ググったら	-11.4864
経験値	-11.4864
尚更	-11.4864
翌年	-11.4865
協会	-11.4865
暴言	-11.4865
スポット	-11.4865
毎度	-11.4866
ナイター	-11.4866
末期	-11.4866
フリーター	-11.4867
修行	-11.4867
デッド	-11.4868
百合	-11.4868
ありえない	-11.4869
給食	-11.4869
休場	-11.4869
加入	-11.487
敗退	-11.487
北条	-11.487
みなさん	-11.4871
じっくり	-11.4871
試しに	-11.4871
強肩	-11.4872
前評判	-11.4873
打法	-11.4873
カップル	-11.4874
筆頭	-11.4875
交流	-11.4875
立たない	-11.4876
消化試合	-11.4876
運用	-11.4876
絡み	-11.4876
春休み	-11.4877
ストック	-11.4877
古代	-11.4878
なんやったっけ	-11.4878
インスタ	-11.4878
言いながら	-11.4879
ゲット	-11.4881
きながら	-11.4881
無援護	-11.4883
言っとく	-11.4884
文法	-11.4884
ッチャ	-11.4886
やめよう	-11.4886
届く	-11.4889
あるはず	-11.489
VR	-11.4891
効く	-11.4893
日本史	-11.4893
シード	-11.4895
半ば	-11.4896
願い	-11.4897
サポ	-11.4898
やり直し	-11.4898
後半戦	-11.4898
リプレイ	-11.4903
やりすぎ	-11.4905
なんだかんだで	-11.4905
ファッション	-11.4906
よく聞く	-11.4907
えええええ	-11.4907
言い出す	-11.4908
なおさら	-11.4909
▁要は	-11.4909
ますわね	-11.491
まとめられ	-11.491
おやすみ	-11.4911
家系	-11.4911
学生時代	-11.4912
事態	-11.4912
いれて	-11.4912
権力	-11.4916
色々ある	-11.4919
おじいちゃん	-11.4919
満点	-11.492
高谷	-11.492
忘れてたわ	-11.4927
最低でも	-11.4928
しとけよ	-11.4928
であること	-11.4929
ドール	-11.4932
真田	-11.4932
サクラ	-11.494
んごねぇ	-11.4942
よければ	-11.4945
多すぎやろ	-11.495
コンマイ	-11.4957
部門	-11.4958
減らす	-11.496
選出	-11.4961
ボク	-11.4964
気がした	-11.4966
やめてくれよ	-11.4967
五分	-11.4967
勝ち投手	-11.4967
身内	-11.4984
6000	-11.4985
思っとる	-11.4987
何個	-11.4995
小島	-11.5002
金かかる	-11.5003
製作	-11.5005
ワースト	-11.5006
三割	-11.5009
スゲー	-11.501
歩け	-11.5011
様子見	-11.5012
しとるんやろ	-11.5012
他国	-11.5012
したことある	-11.5013
アメリカン	-11.5016
あんのか	-11.5016
レディ	-11.5022
ケロ	-11.5022
ヒット打った	-11.5027
ing	-11.5032
っちゅう	-11.5035
話してた	-11.5035
速く	-11.5044
アレやけど	-11.5044
れんかった	-11.5045
ええのか	-11.5045
教えろ	-11.5058
ウソ	-11.5064
ロッテ戦	-11.5066
売れた	-11.5067
ハル	-11.5071
覚め	-11.5072
そんなことない	-11.5077
ネギ	-11.5089
飼い	-11.509
無くなって	-11.5091
足らん	-11.5092
行ってくる	-11.5097
出来てる	-11.5098
しつつ	-11.5108
走ってる	-11.5108
ri	-11.511
数年後	-11.5119
ダサ	-11.5133
獲った	-11.5133
だもんな	-11.5138
られなかった	-11.5141
だった気がする	-11.5148
きてくれ	-11.5155
見始めた	-11.5157
以	-11.5158
言われてるけど	-11.516
空いた	-11.516
攻める	-11.5171
143	-11.5173
怖すぎ	-11.5177
降りて	-11.5179
やって欲しい	-11.5181
せんのか	-11.5186
北方	-11.5189
迷った	-11.519
隠して	-11.5193
ｗｗｗｗｗｗｗｗｗｗｗｗｗｗｗ	-11.5199
輩	-11.52
レンジ	-11.5207
針	-11.5211
遊撃	-11.5211
予告	-11.5215
臓	-11.5215
律	-11.5216
萎	-11.5216
招	-11.5216
棄	-11.5217
疎	-11.5217
克	-11.5217
桃	-11.5217
掃	-11.5217
コンパクト	-11.5218
凸	-11.5218
筑	-11.5218
醜	-11.5218
ムネリン	-11.5218
弊	-11.5218
ｇ	-11.5218
ギャンブル	-11.5218
フォアボール	-11.5218
ポテチ	-11.5218
堤	-11.5218
菌	-11.5218
蓄	-11.5218
▁ヒエッ	-11.5218
カウンター	-11.5218
スマブラ	-11.5218
山手線	-11.5218
引きこもり	-11.5218
ユーティリティ	-11.5218
煎	-11.5218
穂	-11.5218
粛	-11.5218
サンシャイン	-11.5218
憎	-11.5218
釘	-11.5218
タナケン	-11.5218
トカダ	-11.5218
共謀罪	-11.5218
太平洋	-11.5218
資本主義	-11.5218
お世話	-11.5218
致命的	-11.5218
査定	-11.5218
ナゴヤドーム	-11.5218
エンディング	-11.5218
開拓	-11.5218
掛布	-11.5218
全般	-11.5218
陥落	-11.5218
信仰	-11.5218
騎士	-11.5218
おしまい	-11.5218
お母さん	-11.5218
スペシャル	-11.5218
考察	-11.5218
キャンパス	-11.5218
キタサン	-11.5218
杉浦	-11.5218
予備校	-11.5218
背景	-11.5219
稼いだ	-11.5219
さいてょ	-11.5219
住宅	-11.5219
容姿	-11.5219
誤爆	-11.5219
間に合わん	-11.5219
仮病	-11.5219
保留	-11.5219
同い年	-11.5219
豪華	-11.5219
開き直	-11.5219
立派な	-11.5219
上がってきた	-11.5219
探しています	-11.5219
福浦	-11.5219
経歴	-11.5219
誤字	-11.5219
ﾎｼ	-11.522
MAX	-11.522
スカート	-11.522
先頭打者	-11.522
在住	-11.522
切り替えていく	-11.522
渡辺	-11.5221
通勤	-11.5221
何となく	-11.5221
あらゆる	-11.5221
小さな	-11.5222
まっすぐ	-11.5222
司会	-11.5222
徳島	-11.5222
ｲﾘ	-11.5222
信号	-11.5223
世代交代	-11.5223
目の前で	-11.5223
電波	-11.5223
ろくに	-11.5223
倒して	-11.5223
カイジ	-11.5224
ベッド	-11.5224
徳川	-11.5224
不在	-11.5225
ポジポジ	-11.5226
いっしょ	-11.5227
食いたい	-11.5227
首相	-11.5227
フェン	-11.5227
避けて	-11.5228
剣道	-11.5228
会員	-11.5228
入れない	-11.5228
▁虎さん	-11.5229
育ち	-11.5229
プール	-11.5229
半島	-11.523
(^)(^)「	-11.523
▁そう考えると	-11.523
重量	-11.5231
伸びない	-11.5231
狩り	-11.5231
江川	-11.5232
パーティー	-11.5233
内角	-11.5234
無茶	-11.5236
忍者	-11.5236
優勝争い	-11.5236
▁頼むから	-11.5237
チップ	-11.5237
美しい	-11.5237
何事も	-11.5238
聞いてた	-11.5238
天谷	-11.5239
早速	-11.524
共用	-11.524
長打力	-11.5241
天井	-11.5243
人脈	-11.5244
どれぐらい	-11.5244
何してるん	-11.5245
自分たち	-11.5245
だと思った	-11.5247
圧力	-11.5248
立地	-11.525
みせて	-11.525
一筋	-11.5251
嬉しかった	-11.5251
GW	-11.5251
強くなる	-11.5252
HD	-11.5252
ポール	-11.5255
シャン	-11.526
中田翔	-11.5261
事業	-11.5262
ニキ達	-11.5263
行きたくない	-11.5263
タレ	-11.5264
安心した	-11.5265
ミラー	-11.5265
▁おやすみやで	-11.5267
本命	-11.5268
再来年	-11.5269
遅れて	-11.5271
守備上手い	-11.5275
に貢献し	-11.5281
クン	-11.5282
にゃん	-11.5283
勝ち負け	-11.5284
迫真	-11.529
段階	-11.529
しょぼ	-11.5297
中塚	-11.5299
と同じくらい	-11.5306
撮り	-11.5306
無かったら	-11.5306
部員	-11.5308
良いと思う	-11.5309
そんなやつ	-11.5309
になってほしい	-11.5309
と戦って	-11.5309
新海	-11.5317
引かれ	-11.5321
大根	-11.5322
喋って	-11.5332
だとしても	-11.5332
あの子	-11.5334
魅力的	-11.5337
なってない	-11.534
三軍	-11.534
誰やっけ	-11.5342
道民	-11.5344
間違える	-11.5356
大成功	-11.5357
するとき	-11.5359
崩れる	-11.5364
ますかね	-11.5368
訳やない	-11.5371
出てきたら	-11.5377
二十	-11.5378
千葉県	-11.5379
粘れ	-11.5388
石山	-11.539
Fi	-11.539
ヤニキ	-11.5391
作りたい	-11.5397
持たない	-11.5402
ぶっ壊れ	-11.5404
部下	-11.5405
渡す	-11.5406
カム	-11.5408
とは思わんかった	-11.541
安心感	-11.5412
ちょっと違う	-11.5418
させてくれ	-11.5427
加工	-11.5428
エレ	-11.5432
んやったっけ	-11.5437
開けて	-11.5444
一番好きな	-11.5454
頭痛	-11.5455
サヨナラホームラン	-11.5456
受かった	-11.5456
有名人	-11.5463
怖すぎる	-11.5466
当てられ	-11.547
浮いて	-11.5471
1,2	-11.5494
中京	-11.5494
は許された	-11.5498
パンダ	-11.5499
ちなヤク	-11.5502
風呂入	-11.5507
と勘違いして	-11.5508
倒せ	-11.5512
メモリ	-11.5515
それっぽい	-11.5517
潰れる	-11.5527
やってること	-11.5533
かわええ	-11.5534
出かけ	-11.5541
っちょ	-11.555
起きてる	-11.5553
さんサイド	-11.556
集める	-11.5561
視聴	-11.557
狩	-11.5571
感性	-11.5574
騒	-11.5574
のは難しい	-11.5579
覇	-11.558
致	-11.558
由	-11.5582
織	-11.5583
慎	-11.5586
ウルトラ	-11.5587
衝	-11.5587
貞	-11.5587
Ｈ	-11.5587
謙	-11.5588
ポンコツ	-11.5588
脅	-11.5588
淵	-11.5588
真っ直ぐ	-11.5588
ｓ	-11.5588
゜	-11.5588
///	-11.5588
アマチュア	-11.5588
ファミコン	-11.5588
ホカホカ	-11.5588
奨学金	-11.5588
芽	-11.5588
冷蔵庫	-11.5588
戯	-11.5588
旦那	-11.5588
JAPAN	-11.5588
···	-11.5588
ネズミ	-11.5588
マリーンズ	-11.5588
名推理	-11.5588
もらわんと	-11.5588
コミュニケーション	-11.5588
スクワット	-11.5588
バケモン	-11.5588
致命傷	-11.5588
°	-11.5588
丘	-11.5588
Ｗ	-11.5588
wbc	-11.5588
クイック	-11.5588
ヒカキン	-11.5588
細胞	-11.5588
ヤフド	-11.5588
の集まり	-11.5588
カブト	-11.5588
～～～	-11.5588
とは思わなかった	-11.5588
ボーク	-11.5588
落ち着いた	-11.5588
むずい	-11.5588
お兄さん	-11.5588
当てはまる	-11.5588
ハンカチ	-11.5588
復興	-11.5588
ＮＧ	-11.5588
山本昌	-11.5588
伸びてる	-11.5589
クレーム	-11.5589
なんとも言えん	-11.5589
見つかる	-11.5589
きもい	-11.5589
キャリアハイ	-11.5589
gif	-11.5589
新庄	-11.5589
稲田	-11.5589
つまんない	-11.559
惑星	-11.559
製造	-11.559
サイクル	-11.559
転載	-11.559
みつを	-11.559
ウルトラマン	-11.559
随分	-11.559
クラッチ	-11.5591
武装	-11.5591
解禁	-11.5591
ソウル	-11.5591
取引	-11.5591
精神科	-11.5591
保守	-11.5592
連休	-11.5592
キーパー	-11.5593
当たらん	-11.5593
恵体	-11.5593
食らった	-11.5594
法政	-11.5594
制服	-11.5594
気づく	-11.5595
家康	-11.5595
ジョージ	-11.5595
滅び	-11.5595
打席連続	-11.5596
ランサム	-11.5596
なりすまし	-11.5596
初めて知った	-11.5596
通用しない	-11.5596
軍隊	-11.5597
ことがない	-11.5597
無課金	-11.5598
飛行	-11.5598
藤原	-11.5598
処分	-11.5599
メンチ	-11.5599
地帯	-11.5601
炒め	-11.5601
バルデスおじさん	-11.5603
超えてる	-11.5603
ホスト	-11.5604
論文	-11.5605
晴らし	-11.5606
`）	-11.5609
テイ	-11.561
草生や	-11.561
戦国時代	-11.561
ok	-11.5611
石川雄洋	-11.5613
決め球	-11.5615
オッチ	-11.5619
お疲れ様やで	-11.5621
熱男	-11.5621
不人気	-11.5622
買っ	-11.5622
ツキ	-11.5623
吉本	-11.5626
全面	-11.5627
いいいいい	-11.5629
少なかった	-11.5629
2007	-11.5629
民進	-11.563
何やねん	-11.5631
巡り	-11.5631
させれば	-11.5632
緩い	-11.5633
の方が多い	-11.5634
決して	-11.5635
作曲	-11.5636
聞い	-11.5639
を与える	-11.564
関西人	-11.5644
顔文字	-11.5645
部長	-11.5646
ガム	-11.565
になる確率	-11.5651
取らん	-11.5651
晩年	-11.5656
泣いてる	-11.5656
みたいだし	-11.5658
中の人	-11.5661
粘る	-11.5664
中世	-11.5665
叩	-11.5668
嬉し	-11.5669
怒られた	-11.5676
どっから	-11.5677
復活する	-11.5685
ーーーーーーーーー	-11.5693
殴られ	-11.5694
点取られて	-11.5694
ああああああ	-11.5699
可愛かった	-11.57
気にならん	-11.5701
にもならん	-11.5706
el	-11.5711
っくり	-11.5714
わけないだろ	-11.5716
テープ	-11.5716
正月	-11.5718
被った	-11.5722
ちくり	-11.5722
違います	-11.5723
行ってみたい	-11.5725
着け	-11.5732
のワイだけ	-11.5733
ことになってる	-11.5742
怒られ	-11.5748
行きたくな	-11.575
降る	-11.5753
消した	-11.5761
借りて	-11.5761
クワ	-11.5761
当たってる	-11.5765
レッツ	-11.5765
こもって	-11.5766
んだけどなぁ	-11.5767
気に入	-11.5769
叩け	-11.577
んだけどね	-11.5786
成仏	-11.5788
川上	-11.5788
どこなん	-11.5807
してくれれば	-11.5815
BO	-11.5815
嬉	-11.5816
４０	-11.582
イベ	-11.5826
ve	-11.5828
ヤバそう	-11.5831
謝る	-11.5838
悩	-11.5838
▁ホンマや	-11.584
-7	-11.5844
力不足	-11.5844
ヘイ	-11.5845
休ませる	-11.5869
無理無理	-11.5875
外せ	-11.588
いきそう	-11.5882
投げられ	-11.5885
ないでくれ	-11.5886
キック	-11.5895
叩かれた	-11.5899
邦	-11.5901
あれほど	-11.5909
ものがある	-11.5915
煽ってる	-11.5918
hu	-11.5922
IC	-11.5926
要る	-11.5928
fa	-11.594
5%	-11.594
ゴッド	-11.5941
思うんやけど	-11.5945
民主	-11.5946
(ﾟ)(ﾟ)	-11.5947
緒	-11.5949
日付	-11.5951
に関して	-11.5955
る気ない	-11.5956
紅白	-11.5963
卓	-11.5969
功	-11.5969
爽	-11.5969
唐	-11.597
丁	-11.597
網	-11.5972
施	-11.5972
■	-11.5972
捌	-11.5972
滞	-11.5973
ァァァァ	-11.5973
ペットボトル	-11.5973
桐	-11.5973
酢	-11.5973
鋼	-11.5973
擦	-11.5973
浄	-11.5973
Ｕ	-11.5973
out	-11.5973
∀	-11.5973
おばあちゃん	-11.5973
とは限らん	-11.5973
まどマギ	-11.5973
スプリット	-11.5973
ヘルメット	-11.5973
突っ込む	-11.5973
郭	-11.5973
風評被害	-11.5973
ｒ	-11.5973
◇	-11.5973
うろ覚え	-11.5973
おやすミンチェ	-11.5973
凌	-11.5973
枝	-11.5973
詩	-11.5973
遡	-11.5973
．	-11.5973
．．．	-11.5973
アタック	-11.5973
インチキ	-11.5973
キャベツ	-11.5973
スクリプト	-11.5973
単行本	-11.5973
眉	-11.5973
紛らわ	-11.5973
クライマックス	-11.5973
ブキャナン	-11.5973
ホルモン	-11.5973
●●●●	-11.5973
滅多に	-11.5973
つっかえ	-11.5973
山田哲人	-11.5973
役に立つ	-11.5973
たこ焼き	-11.5973
おしえて	-11.5973
追い付か	-11.5973
二次創作	-11.5973
慶応	-11.5973
の再来	-11.5973
占領	-11.5973
構想	-11.5973
キーボード	-11.5973
木曜	-11.5973
にっこり	-11.5973
イッヌ	-11.5974
紅茶	-11.5974
男の娘	-11.5974
恐竜	-11.5974
縁起	-11.5974
落ち着け	-11.5974
エンジン	-11.5974
菅原	-11.5974
▁じゃけん	-11.5974
異次元	-11.5974
くら寿司	-11.5974
銀河	-11.5974
報復	-11.5974
洋画	-11.5974
騒ぐ	-11.5974
止まった	-11.5975
関脇	-11.5975
特攻	-11.5975
整理	-11.5975
誰だお前	-11.5975
正規	-11.5975
観測	-11.5976
▁ワオ	-11.5976
織田	-11.5976
商業	-11.5976
内閣	-11.5976
研修	-11.5976
言っちゃう	-11.5976
戸根	-11.5976
ガールズ	-11.5977
突撃	-11.5977
洋ゲー	-11.5977
足りてない	-11.5977
終えて	-11.5977
はっきり言って	-11.5977
和製	-11.5977
荒らされ	-11.5978
▁000	-11.5978
ニョ	-11.5978
低学歴	-11.5978
キャッチボール	-11.5978
言おう	-11.5979
ドイツ語	-11.5979
聖書	-11.5979
とっとと	-11.598
失速	-11.598
パイプ	-11.598
同じように	-11.598
▁嘘つけ	-11.598
館山	-11.5981
変身	-11.5981
投入	-11.5981
自責点	-11.5982
口調	-11.5982
伏見	-11.5982
ドリンク	-11.5983
落ちてた	-11.5983
わかっとる	-11.5983
全振り	-11.5984
学問	-11.5985
名前欄	-11.5986
飲み屋	-11.5989
▁今更やけど	-11.599
代理	-11.599
中継ぎ陣	-11.599
終わらん	-11.5991
来期	-11.5992
魔物	-11.5992
つまんね	-11.5992
谷元	-11.5993
地区	-11.5995
ハイボール	-11.5995
ふーん	-11.5995
入場	-11.5999
エール	-11.5999
地理	-11.6
除く	-11.6
作られた	-11.6
結婚式	-11.6003
びび	-11.6004
暑い	-11.6005
きれない	-11.6005
帰ってきたら	-11.6005
前世	-11.6005
対右	-11.6006
させろ	-11.6007
サンテレビ	-11.6008
名残	-11.6009
しょうもない	-11.601
無安打	-11.601
市川	-11.6013
コート	-11.6014
ブチ切れ	-11.6016
▁なんやその	-11.6017
喰ら	-11.6019
両親	-11.602
真実	-11.602
お祭り	-11.6021
そうにない	-11.6022
望み	-11.6023
語れ	-11.6026
みるンゴ	-11.6028
長文	-11.603
求人	-11.6032
点取られた	-11.6035
この手の	-11.6037
バスター	-11.6038
▁ソースはワイ	-11.6038
んやろうなあ	-11.6041
気配	-11.6043
ちゃうねん	-11.6045
食ったら	-11.6047
言ってること	-11.6049
ボディ	-11.6051
以外全部	-11.6059
途中まで	-11.6062
く感じる	-11.6065
西口	-11.6066
ないとアカン	-11.6074
染み	-11.6075
同時	-11.6076
狂気	-11.6077
今場所	-11.608
サヨ	-11.6081
四月	-11.6084
共感	-11.6087
出張	-11.6101
セルフ	-11.6106
ありゃ	-11.6106
ナンバーワン	-11.6107
どうすればええんや	-11.6117
６０	-11.6125
岸本	-11.6135
働いた	-11.6136
取れなかった	-11.6137
せばええ	-11.614
フォル	-11.6143
優勝チーム	-11.616
見せてくれ	-11.6164
毎週	-11.6164
▁今んとこ	-11.6165
チャラ	-11.6167
0.5	-11.6172
強くなった	-11.6174
▁その代わり	-11.6175
ォン	-11.6178
してほしかった	-11.6181
震えて	-11.6183
現れた	-11.6186
ファイア	-11.6189
この先	-11.6195
切られる	-11.6196
ことができる	-11.6204
手軽	-11.6208
しとんの	-11.6211
方がええんか	-11.6213
解らん	-11.6217
売った	-11.6218
神ってる	-11.623
聞かせ	-11.6235
開き	-11.6244
ここにいる	-11.6263
批判され	-11.6265
っとう	-11.6273
安打数	-11.6274
切ら	-11.6281
合ってない	-11.6286
理解できる	-11.629
ごとき	-11.6295
っぽくて	-11.6298
扱いされて	-11.6304
単年	-11.6307
▁そうだよ	-11.6308
歩いてる	-11.6309
ランニング	-11.6311
ニキおる	-11.6312
活用	-11.6319
航	-11.6321
まかせ	-11.6322
たくさんある	-11.6322
ないと無理	-11.6322
いつの間に	-11.6329
切られ	-11.6332
読んでた	-11.6335
されてて草	-11.6339
遇	-11.6346
目立って	-11.6347
じゃないですかね	-11.6348
GB	-11.635
すまンゴ	-11.6351
やったことある	-11.6352
歌ってる	-11.6353
発狂する	-11.6359
ブチ	-11.6359
塁打	-11.6361
ふっ	-11.6362
賃	-11.6364
活躍でき	-11.6364
抑	-11.6365
栗	-11.6368
真っ赤	-11.6368
盟	-11.6368
徹底	-11.637
泰	-11.6371
依	-11.6372
憤	-11.6372
環	-11.6372
肝	-11.6372
@	-11.6372
孕	-11.6372
履歴書	-11.6373
殖	-11.6373
バッセン	-11.6373
ベトナム	-11.6373
串	-11.6373
具体的な	-11.6373
疾	-11.6373
ネカマ	-11.6373
ネトゲ	-11.6373
パーフェクト	-11.6373
旭	-11.6373
貝	-11.6373
スケジュール	-11.6373
ブレイディ	-11.6373
霧	-11.6373
ｴ	-11.6373
上位互換	-11.6373
共産	-11.6373
喝	-11.6373
託	-11.6373
ハーレム	-11.6373
擬	-11.6373
梵	-11.6373
パレード	-11.6373
弥	-11.6373
救世主	-11.6373
項	-11.6373
ｫ	-11.6373
ドーナツ	-11.6373
罠	-11.6373
デレマス	-11.6373
単純な	-11.6373
大草原	-11.6373
なんちゃら	-11.6373
初年度	-11.6373
サトシ	-11.6373
弱体化	-11.6373
武隈	-11.6373
しれっと	-11.6373
モンゴル	-11.6373
媚び	-11.6373
ハーブ	-11.6373
民主党	-11.6373
隔離	-11.6373
砂糖	-11.6373
模写	-11.6373
維新	-11.6373
やさしい	-11.6373
ハンバーガー	-11.6373
イヤホン	-11.6373
▁以下好きな	-11.6373
伸ばして	-11.6373
辞任	-11.6373
周囲	-11.6373
架空	-11.6374
講師	-11.6374
！！！！！！！！！！！（	-11.6374
コマンド	-11.6374
にしか見えん	-11.6374
貴族	-11.6374
篠原	-11.6374
変則	-11.6374
乗り換え	-11.6374
電池	-11.6374
メイク	-11.6375
相応	-11.6375
まずいですよ	-11.6375
斜め	-11.6375
デッドボール	-11.6375
新鮮	-11.6375
軽視	-11.6375
トラブル	-11.6376
服装	-11.6376
なかろう	-11.6376
苦痛	-11.6376
感情論	-11.6376
だいすき	-11.6377
一本釣り	-11.6377
教室	-11.6377
対処	-11.6377
関西弁	-11.6377
サクセス	-11.6378
過程	-11.6378
行きたかった	-11.6378
系統	-11.6378
駅伝	-11.6379
素振り	-11.6379
踏む	-11.6379
富士山	-11.6379
出題	-11.6379
▁男村田	-11.638
次郎	-11.638
飛ばした	-11.638
リーグ優勝	-11.638
アイコン	-11.6381
秀吉	-11.6381
カオス	-11.6383
▁ちょっと待って	-11.6383
最期	-11.6383
食らって	-11.6384
っぱなし	-11.6385
遠い目	-11.6386
結び	-11.6386
威力	-11.6389
受験生	-11.6389
夏休み	-11.6389
休む	-11.6389
つっつ	-11.639
スタバ	-11.639
盗塁王	-11.639
逃す	-11.639
勇者	-11.639
考えずに	-11.6391
エリア	-11.6392
寺内	-11.6395
迷ってる	-11.6395
▁その理論	-11.6395
福地	-11.6395
中畑	-11.6396
後期	-11.6396
ブレーキ	-11.6397
リベ	-11.6397
松尾	-11.6398
ランチ	-11.6398
きがする	-11.64
しょぼい	-11.6402
正代	-11.6403
労働者	-11.6403
でやんす	-11.6403
例外	-11.6404
実写化	-11.6405
ヘン	-11.6405
コンボ	-11.6406
実行	-11.6407
HP	-11.6409
教えて欲しい	-11.6411
あわせ	-11.6416
さくら	-11.6417
何十	-11.6419
肉食	-11.642
山井	-11.6424
多め	-11.6426
勝ち運	-11.6431
シャム	-11.6433
日米	-11.6434
不正	-11.6439
ヤクルト戦	-11.644
こだわり	-11.6442
話にならん	-11.6442
低くて	-11.6443
機嫌	-11.6443
ナイン	-11.6446
同レベル	-11.6449
モブ	-11.6453
比率	-11.6454
両チーム	-11.6456
にはならない	-11.6459
切られた	-11.646
出席	-11.6469
マヨ	-11.6471
上手かった	-11.6478
トリオ	-11.6479
ついてくる	-11.65
楽しみにしてる	-11.6504
蹴り	-11.6508
出来そう	-11.6509
されへん	-11.6531
決めてる	-11.6534
意味がない	-11.6535
同一	-11.6542
ないとあかん	-11.6546
▁オリさん	-11.6546
サンキュー	-11.6551
置かれ	-11.6556
ええええええええええ	-11.656
好きなんやけど	-11.6561
喋り	-11.6566
絶望感	-11.6569
杉本	-11.6569
悲しくな	-11.6575
避ける	-11.658
踏ま	-11.6581
県内	-11.6585
自信ある	-11.6587
と思っとった	-11.6589
火事	-11.6593
球投げて	-11.6604
YO	-11.6613
ｗｗｗｗｗｗｗｗｗｗｗｗ	-11.6616
イカン	-11.6626
ｗｗｗｗｗｗｗｗｗｗｗｗｗｗ	-11.6633
だったっけ	-11.6638
成功してる	-11.6638
売れてる	-11.6642
騙	-11.6644
違和感ある	-11.6652
思えば	-11.6654
たがる	-11.6656
ロッテファン	-11.666
戻って来	-11.6662
MI	-11.667
頼んだ	-11.6671
ヘーキヘーキ	-11.6679
ぁぁぁぁ	-11.6684
短く	-11.6685
んだもん	-11.6687
オーク	-11.6687
点とられ	-11.6689
に似て	-11.6689
ワイと同じ	-11.6708
グラス	-11.6708
ミツ	-11.671
小便	-11.6725
威圧	-11.6728
だめだ	-11.6728
ジェイ	-11.6729
だめです	-11.6757
痛かった	-11.6759
年くらい前	-11.6761
上昇	-11.6765
声出し	-11.6768
取り返し	-11.6781
哀	-11.6782
茂	-11.6785
潮	-11.6787
承	-11.6788
蛮	-11.6788
療	-11.6788
摩	-11.6788
梶	-11.6788
摂	-11.6789
多田野	-11.6789
往	-11.6789
柏	-11.6789
無茶苦茶	-11.6789
盲	-11.6789
箸	-11.6789
閲覧	-11.6789
秀岳館	-11.6789
トレーナー	-11.6789
プロテイン	-11.6789
伊志嶺	-11.6789
峰	-11.6789
承認欲求	-11.6789
アヘアヘ	-11.6789
ファイターズ	-11.6789
モスコーソ	-11.6789
刷	-11.6789
掌	-11.6789
サイレント	-11.6789
ダントツ	-11.6789
マネージャー	-11.6789
叱	-11.6789
吉野家	-11.6789
髙	-11.6789
キムショー	-11.6789
クラシック	-11.6789
兎	-11.6789
沢村賞	-11.6789
説得力	-11.6789
贄	-11.6789
▁因みに	-11.6789
小遣い	-11.6789
斎藤佑樹	-11.6789
良くも悪くも	-11.6789
虹	-11.6789
▁うるせえ	-11.6789
典型	-11.6789
背負って	-11.6789
生涯	-11.6789
リアリティ	-11.6789
▁やりますねぇ	-11.6789
■■	-11.6789
リリース	-11.6789
怪獣	-11.6789
ハーマン	-11.6789
ホホホ	-11.6789
▁かといって	-11.679
ノムさん	-11.679
挙句	-11.679
総理大臣	-11.679
▁当たり前だよなぁ	-11.679
演奏	-11.679
潮崎	-11.679
建築	-11.679
加古川	-11.679
ビデオ判定	-11.679
マツダスタジアム	-11.679
沈黙	-11.679
けいおん	-11.679
▁ほんそれ	-11.679
制覇	-11.679
抗議	-11.679
頻度	-11.679
カツ丼	-11.679
トンネル	-11.679
姉貴	-11.679
騒動	-11.679
いわゆる	-11.6791
オスカル	-11.6791
テーブル	-11.6791
充実	-11.6791
予報	-11.6791
聖域	-11.6791
設置	-11.6791
確保	-11.6791
募金	-11.6791
ハルヒ	-11.6791
ドッグ	-11.6791
連呼	-11.6791
敬語	-11.6791
▁どっちにしろ	-11.6791
可変	-11.6791
マシンガン	-11.6791
徹底的に	-11.6792
が勝つ確率	-11.6792
興行	-11.6792
ポケット	-11.6793
と比べると	-11.6793
▁原口なんだよなあ	-11.6793
帰ってこない	-11.6793
似合う	-11.6793
腐女子	-11.6793
工夫	-11.6793
大人しく	-11.6793
フルスイング	-11.6793
画質	-11.6793
五輪	-11.6794
先祖	-11.6794
細かく	-11.6794
ヴェル	-11.6794
拡大	-11.6794
奈々	-11.6795
クリーム	-11.6795
ボイス	-11.6796
海老	-11.6796
トラック	-11.6796
求められる	-11.6797
赤字	-11.6797
捕まる	-11.6797
▁なんやこいつ	-11.6797
見つかった	-11.6798
太もも	-11.6798
失格	-11.6798
両方とも	-11.6798
▁よく見たら	-11.6799
思いついた	-11.68
真砂	-11.68
理解でき	-11.68
視聴者	-11.68
花火	-11.6801
タワー	-11.6801
フルイニング	-11.6802
▁てことは	-11.6802
断言	-11.6803
遊撃手	-11.6804
ソニー	-11.6805
主義者	-11.6805
千代	-11.6806
頑張ってクレメンス	-11.6807
完封負け	-11.6809
月曜日	-11.6809
とワイは思う	-11.681
載ってる	-11.681
来シーズン	-11.6811
売上	-11.6811
長嶋	-11.6813
サタン	-11.6813
単体	-11.6813
打ち切り	-11.6814
流用	-11.6814
過ぎて草	-11.6816
レモン	-11.6816
根性	-11.6817
検索したら	-11.6817
▁おぉ	-11.6818
ボコボコにされ	-11.6818
現れる	-11.6818
打高	-11.6819
特急	-11.6819
ドアラ	-11.682
と思わせ	-11.6821
南部	-11.6821
教えてほしい	-11.6822
チケ	-11.6822
むっちゃ	-11.6823
良心	-11.6823
許した	-11.6823
PL	-11.6825
裏山	-11.6827
無敗	-11.6828
俺達	-11.6831
強力	-11.6832
どこ行った	-11.6833
学ぶ	-11.6834
機体	-11.6835
人間関係	-11.6836
追いつく	-11.6836
指導者	-11.6841
はるかに	-11.6842
取材	-11.6843
香り	-11.6843
三角	-11.6844
BL	-11.6844
誉め	-11.685
ジャニ	-11.6853
悪くはない	-11.6854
子孫	-11.6854
振った	-11.6855
拾った	-11.6858
先発ローテ	-11.6859
そうな気がする	-11.6861
買ってきて	-11.6861
金沢	-11.6864
おかしかった	-11.6865
腹減っ	-11.6874
したがる	-11.6876
出てきそう	-11.6878
方式	-11.6881
２００	-11.6882
なくなり	-11.6898
目指し	-11.69
打っとる	-11.69
通じる	-11.6904
強くない	-11.6909
繋げ	-11.6911
ますます	-11.6912
表示され	-11.6915
選ばれた	-11.6922
三塁打	-11.6922
少なくない	-11.6937
応え	-11.6937
食わせ	-11.6962
現れて	-11.6973
ホームラン打て	-11.698
あったはず	-11.6983
正しく	-11.6987
垂	-11.6991
攻撃力	-11.6995
襲われ	-11.6999
(●ﾟ◇ﾟ●)	-11.7002
ずるい	-11.7004
調べてみる	-11.7012
思ったら	-11.7021
取ろう	-11.7047
短編	-11.7051
解説者	-11.7056
駄目です	-11.7059
見えてる	-11.7061
る最中	-11.7062
ネオ	-11.7072
てもおかしくない	-11.7077
アリス	-11.7101
見逃して	-11.7121
もらえん	-11.7134
ごめんね	-11.7145
劣る	-11.7159
見直し	-11.7173
良すぎ	-11.7176
ヘビ	-11.7181
泣け	-11.7188
覗	-11.7189
ザキ	-11.7191
輝く	-11.7193
おります	-11.7198
オリファン	-11.7203
wwwwwwwwwwwwwwww	-11.7204
月曜	-11.7205
とかいう謎	-11.7212
自分より	-11.7215
柔	-11.7222
笠	-11.7222
炭	-11.7223
幽	-11.7224
挫	-11.7224
喫	-11.7224
鎮	-11.7224
銅	-11.7224
ﾚ	-11.7224
フィジカル	-11.7224
真っ黒	-11.7224
ジャガイモ	-11.7224
芯	-11.7224
藩	-11.7224
ｩ	-11.7224
Д	-11.7224
twitter	-11.7224
⌒	-11.7224
ウエスト	-11.7224
モニター	-11.7224
リハビリ	-11.7224
乱打戦	-11.7224
僧	-11.7224
怨	-11.7224
据え置き	-11.7224
チョイス	-11.7224
方程式	-11.7224
滝	-11.7224
スーファミ	-11.7224
トータル	-11.7224
フィリピン	-11.7224
暦	-11.7224
筈	-11.7224
サラリーマン	-11.7224
捏造	-11.7224
理不尽	-11.7224
袖	-11.7224
隙あらば	-11.7224
朴	-11.7224
案の定	-11.7224
お兄ちゃん	-11.7224
巻き込まれ	-11.7224
うんざり	-11.7224
包丁	-11.7224
ふつう	-11.7224
倫理	-11.7224
上から目線	-11.7224
待遇	-11.7224
連携	-11.7224
に比べれば	-11.7224
習慣	-11.7225
ｼｬ	-11.7225
希ガス	-11.7225
うんぬん	-11.7225
オッケー	-11.7225
ワールドカップ	-11.7225
1-0	-11.7225
充電	-11.7225
ダイエー	-11.7225
合併	-11.7225
離婚	-11.7225
退屈	-11.7225
堂々と	-11.7225
建設	-11.7225
▁正確には	-11.7225
吸収	-11.7225
トリプル	-11.7225
承知	-11.7225
パーセント	-11.7225
救済	-11.7226
インターネット	-11.7226
ワイルド	-11.7226
躍動	-11.7226
目指せ	-11.7226
古典	-11.7226
阪急	-11.7226
ポンポン	-11.7226
階級	-11.7226
テレ朝	-11.7226
ブラウン	-11.7226
快速	-11.7227
ゲーセン	-11.7227
五郎	-11.7227
母校	-11.7228
古参	-11.7228
雇用	-11.7228
起動	-11.7229
サブロー	-11.7229
自動車	-11.7229
中村晃	-11.7229
ウォーター	-11.723
経過	-11.723
ノーアウト満塁	-11.723
貢献度	-11.723
関わる	-11.7231
か否か	-11.7231
水泳	-11.7231
改正	-11.7231
覇気	-11.7232
刑事	-11.7232
感染	-11.7232
飛べ	-11.7232
公共	-11.7232
騎手	-11.7232
デメリット	-11.7232
作画	-11.7233
そんなこと言って	-11.7233
松屋	-11.7233
喫煙者	-11.7233
ディスク	-11.7234
下がってる	-11.7234
ヤンキース	-11.7236
トルコ	-11.7236
陸上	-11.7237
沖縄県民	-11.7238
FPS	-11.7238
.00	-11.7238
使いやすい	-11.7238
分散	-11.7239
・´)	-11.7239
どうにもならん	-11.7239
サンデー	-11.724
秋田	-11.7241
▁やーい	-11.7241
mm	-11.7244
うるさ	-11.7246
近場	-11.7246
少数	-11.7247
古川	-11.7247
除いて	-11.7247
すみません	-11.7248
岩手	-11.7248
ジョイ	-11.7248
打点王	-11.725
欠点	-11.7251
中軸	-11.7251
振られ	-11.7252
ステマ	-11.7252
代役	-11.7254
火星	-11.7254
北條くん	-11.7254
配球	-11.7257
わけだし	-11.7258
二浪	-11.726
▁へー	-11.7262
外国人枠	-11.7265
乗せて	-11.7272
所持	-11.7279
二年目	-11.7282
話しかけて	-11.7284
真逆	-11.7289
威圧感	-11.7289
ホームレス	-11.7292
能見さん	-11.7298
ヒゲ	-11.73
お湯	-11.7301
走らせ	-11.7305
酷すぎる	-11.7305
に任せて	-11.7309
ホウ	-11.731
えええええええ	-11.7318
まだ早い	-11.7324
おおおおおおおおおおおおおお	-11.7324
下ろし	-11.7325
回転寿司	-11.7326
▁ちな他	-11.7332
教えてください	-11.7335
逃げられ	-11.7338
and	-11.7344
訳でもない	-11.7347
温め	-11.7355
痛くなる	-11.7357
ッキング	-11.7359
他の選手	-11.7368
すごいと思う	-11.7378
付いてない	-11.7381
地元民	-11.7391
ここにおる	-11.7398
受け入れられ	-11.7405
フレー	-11.7427
^^	-11.7431
作ってくれ	-11.7436
NY	-11.7443
半端	-11.7451
やすかった	-11.7457
月末	-11.7462
インディ	-11.7472
興奮する	-11.7483
893	-11.7484
起きない	-11.7487
やめて欲しい	-11.7492
期限	-11.7493
振れ	-11.75
結果出して	-11.7503
騒いでる	-11.7518
ひどすぎ	-11.7531
ろくな	-11.7541
すぎちゃう	-11.7544
ッピー	-11.7553
ちまった	-11.7603
ぐうかわ	-11.7605
植	-11.7612
笑われ	-11.7612
どんな感じなん	-11.7614
女友達	-11.7632
聞いてくれ	-11.7652
塁に出	-11.7655
大学時代	-11.7666
鮮	-11.7672
研	-11.7674
パーティ	-11.7676
駿	-11.7677
釈	-11.7677
仰	-11.7678
謀	-11.7678
範	-11.7678
溝	-11.7678
⚫	-11.7678
賄	-11.7678
アヘ単	-11.7679
ダイエット	-11.7679
功労者	-11.7679
寛	-11.7679
マッスル	-11.7679
李	-11.7679
ﾐ	-11.7679
▽	-11.7679
テキトー	-11.7679
伯	-11.7679
伸ばす	-11.7679
東南アジア	-11.7679
自業自得	-11.7679
お立ち台	-11.7679
ぢ	-11.7679
ニヤニヤ	-11.7679
ポジティブ	-11.7679
著	-11.7679
Google	-11.7679
こんばんは	-11.7679
ひっそり	-11.7679
ピカチュウ	-11.7679
ライジング	-11.7679
椎	-11.7679
突っ込ま	-11.7679
絆	-11.7679
贈	-11.7679
ＷＢＣ	-11.7679
nama	-11.7679
ガルセス	-11.7679
勿体ない	-11.7679
＼	-11.7679
コンピュータ	-11.7679
バケモノ	-11.7679
フィギュア	-11.7679
劉	-11.7679
AHRA	-11.7679
ブランコ	-11.7679
あらすじ	-11.7679
モリーナ	-11.7679
何だかんだ	-11.7679
ドクター	-11.7679
止まらん	-11.7679
モチベ	-11.7679
補償	-11.7679
レポート	-11.7679
糖尿	-11.7679
追い込まれ	-11.7679
ちきう	-11.7679
よんたま	-11.7679
一概に	-11.7679
欠陥	-11.7679
▁グエー	-11.7679
不動産	-11.7679
いちばん	-11.7679
宿題	-11.7679
皇帝	-11.7679
徴兵	-11.7679
摂津	-11.7679
思考停止	-11.7679
発祥	-11.7679
気付か	-11.7679
規定到達	-11.7679
陰謀論	-11.768
の運勢	-11.768
やべー	-11.768
多摩	-11.768
進塁打	-11.768
不動の	-11.768
ただ単に	-11.768
ターゲット	-11.768
効いてる	-11.768
準決勝	-11.768
折角	-11.768
字幕	-11.768
でっかい	-11.768
コテハン	-11.768
反則	-11.7681
ジュニア	-11.7681
シェリア	-11.7681
典型的な	-11.7681
桑田	-11.7681
寄付	-11.7681
短期間	-11.7681
開示	-11.7681
ミステリ	-11.7681
爆破	-11.7682
酷く	-11.7682
テラス	-11.7682
種族	-11.7682
伏線	-11.7682
掛かって	-11.7682
叫び	-11.7682
フジテレビ	-11.7683
サボって	-11.7683
暴論	-11.7683
工学部	-11.7683
当選	-11.7683
爆撃	-11.7683
井領	-11.7683
表記	-11.7683
繋ぎ	-11.7683
広瀬	-11.7683
の悪さ	-11.7684
晴	-11.7684
退職	-11.7684
棒読み	-11.7684
教員	-11.7685
▁そういう意味で	-11.7685
る必要ある	-11.7685
0.00	-11.7685
かかりそう	-11.7685
不評	-11.7685
期待値	-11.7686
ゴロゴロ	-11.7686
梅田	-11.7686
道徳	-11.7687
不振	-11.7687
個人情報	-11.7687
▁ほんなら	-11.7688
観光地	-11.7689
何とかなる	-11.7689
魔女	-11.7689
ジェネ	-11.7689
騒がれ	-11.7689
演じ	-11.769
ナイフ	-11.769
呼べば	-11.769
西浦	-11.769
わるい	-11.7691
サーバー	-11.7691
紅白戦	-11.7692
特撮	-11.7692
亡くなった	-11.7693
形式	-11.7693
ればいいじゃん	-11.7693
寸前	-11.7694
寄生	-11.7695
松葉	-11.7695
公文	-11.7696
個人的な	-11.7696
陸軍	-11.7696
みたいな言い方	-11.7696
豊田	-11.7697
それなりの	-11.7697
～♪	-11.7697
合コン	-11.7698
素行	-11.7699
真理	-11.7699
準優勝	-11.7699
ガタイ	-11.7699
ガラス	-11.77
ゥーんだ	-11.77
サヨナラ負け	-11.7701
間近	-11.7701
決めつけ	-11.7701
きゅう	-11.7701
変わってない	-11.7701
払った	-11.7702
来場所	-11.7703
オイル	-11.7703
石川内野手	-11.7703
スクール	-11.7703
この手のスレ	-11.7703
谷口	-11.7704
巡目	-11.7704
近代	-11.7704
ぐうすこ	-11.7705
我々	-11.7707
おかず	-11.7707
長生き	-11.7707
立川	-11.7712
ゼニ	-11.7714
小学生の頃	-11.7715
の高さ	-11.7718
エクス	-11.7719
嫌がる	-11.772
ウヨ	-11.772
持ってきて	-11.7721
キレイ	-11.7725
1、2	-11.7728
仲悪い	-11.7729
ありうる	-11.7729
おおおおおおおお	-11.7729
人それぞれや	-11.773
責められ	-11.7738
みたらどうや	-11.774
走力	-11.7747
影響力	-11.7747
上達	-11.775
お化け	-11.7758
通じない	-11.7759
ぶっこ	-11.7762
高良	-11.7763
公式戦	-11.7765
そんくらい	-11.778
便器	-11.7782
に対し	-11.7791
押せ	-11.7798
チャイ	-11.7806
カツオ	-11.7824
行ったことある	-11.7826
見えへん	-11.7833
そりゃそう	-11.7838
変えられる	-11.7842
草はえる	-11.7852
ああああああああああああ	-11.7853
紛れ	-11.786
なんもない	-11.7868
士気	-11.7878
分からんのや	-11.7884
安倍ちゃん	-11.7888
.18	-11.7891
将来的に	-11.7892
提出	-11.7904
並んだ	-11.7909
ておいた	-11.7919
買いたい	-11.792
家に帰	-11.7938
迎	-11.7946
気にしない	-11.7988
ちなみに	-11.7993
る必要はない	-11.7997
せんでええ	-11.7997
改名	-11.8043
仕入れ	-11.8059
描きたい	-11.8065
ジェフ	-11.8067
文句言って	-11.8069
ええんとちゃう	-11.807
奴がいる	-11.8088
た方がええんちゃう	-11.8106
2、3	-11.8108
割り切	-11.8113
頭の中	-11.8115
逃れ	-11.8116
ビジョン	-11.8125
殴る	-11.8129
くださいまし	-11.8134
充	-11.8148
クエスト	-11.8148
展	-11.8152
いっぱいおる	-11.8152
獄	-11.8152
慢	-11.8152
昭	-11.8154
簡	-11.8154
拘	-11.8155
デスクトップ	-11.8155
佳	-11.8155
盾	-11.8155
郡	-11.8155
ｔ	-11.8155
⚪	-11.8155
刈	-11.8155
啓	-11.8155
ｆ	-11.8155
プログラム	-11.8155
≦	-11.8155
ブロードウェイ	-11.8155
巳	-11.8155
羊	-11.8155
TDN	-11.8155
お勧め	-11.8155
さっそく	-11.8155
ビートルズ	-11.8155
亮	-11.8155
姓	-11.8155
後悔する	-11.8155
恐らく	-11.8155
慈	-11.8155
蜂	-11.8155
飢	-11.8155
WHIP	-11.8155
しゅごい	-11.8155
ドキドキ	-11.8155
圭	-11.8155
委	-11.8155
媒	-11.8155
斐紹	-11.8155
松井裕樹	-11.8155
班	-11.8155
ネガティブ	-11.8155
バッグ	-11.8155
奉	-11.8155
意識高い系	-11.8155
玉ねぎ	-11.8155
お姉さま	-11.8155
ようつべ	-11.8155
゛	-11.8155
グーグル	-11.8155
サトタツ	-11.8155
プライベート	-11.8155
北別府	-11.8155
きっしょ	-11.8155
ごちゃごちゃ	-11.8155
三国志	-11.8155
スペイン語	-11.8155
ミスチル	-11.8155
レストラン	-11.8155
分かりやすく	-11.8155
ナチス	-11.8155
葛	-11.8155
いっぺん	-11.8155
まぐれ	-11.8155
スライディング	-11.8155
厳密に	-11.8155
紳士	-11.8155
拡散	-11.8155
庄司	-11.8155
悲しみ	-11.8155
籠池	-11.8155
同人誌	-11.8155
フレンド	-11.8155
慎吾	-11.8155
脅威	-11.8155
ボクシング	-11.8155
カタカナ	-11.8155
めちゃめちゃ	-11.8155
わかんねえ	-11.8155
天然芝	-11.8155
処刑	-11.8155
燃え尽き	-11.8155
ＩＤ	-11.8155
供給	-11.8155
故郷	-11.8155
タブレット	-11.8155
勝ち越せ	-11.8155
明確な	-11.8156
2-0	-11.8156
遠征	-11.8156
ドリーム	-11.8156
災害	-11.8156
しつこい	-11.8156
期待の若手	-11.8156
就任	-11.8156
浮かぶ	-11.8156
命令	-11.8156
チャーハン	-11.8156
酷評	-11.8156
コメント欄	-11.8156
ＰＳ	-11.8156
高見の見物	-11.8157
遅刻	-11.8157
銀魂	-11.8157
黄金期	-11.8157
国際大会	-11.8157
つよい	-11.8157
柔道	-11.8157
条約	-11.8157
与四球	-11.8157
年経って	-11.8157
野茂	-11.8157
格闘	-11.8158
主審	-11.8158
ヘイグ	-11.8158
ﾝｺ	-11.8158
受賞	-11.8159
美味しそう	-11.8159
白濱	-11.8159
ダンベル	-11.8159
刺激	-11.8159
気をつけるんやで	-11.8159
の多さ	-11.8159
ブラック企業	-11.8159
肉離れ	-11.8159
馬券	-11.8159
▁はいはい	-11.8159
藤波	-11.8159
おなじ	-11.816
さよなら	-11.816
予告先発	-11.816
放映	-11.816
裏切った	-11.816
自炊	-11.816
魔法使い	-11.816
介入	-11.8161
内申	-11.8161
相棒	-11.8161
ディープ	-11.8161
ｗｗｗｗｗｗｗｗｗｗｗｗｗｗｗｗ	-11.8161
たまげたなぁ	-11.8162
残業代	-11.8162
発射	-11.8162
戸村	-11.8162
おばちゃん	-11.8162
▁ファッキュー	-11.8162
誤用	-11.8163
進歩	-11.8163
法案	-11.8163
ops	-11.8163
その場で	-11.8163
3.4	-11.8163
無効	-11.8163
主要	-11.8163
異論	-11.8163
関わり	-11.8164
覗く	-11.8165
悪送球	-11.8165
振り返	-11.8165
テレビ局	-11.8166
伝わって	-11.8166
インフレ	-11.8167
詰む	-11.8167
映画館	-11.8168
都心	-11.8168
独立リーグ	-11.8168
天然	-11.8169
ヤネキ	-11.8169
チャット	-11.817
ギアス	-11.817
機種	-11.817
キャスト	-11.817
退学	-11.817
国公立	-11.817
ニッチ	-11.8171
校長	-11.8171
嘘つき	-11.8171
もらわないと	-11.8172
入社	-11.8172
長距離	-11.8173
内野ゴロ	-11.8173
悪意	-11.8174
文句なし	-11.8175
スパイス	-11.8175
久保田	-11.8175
ヤクルトファン	-11.8177
困ってる	-11.8177
早かった	-11.8179
守備走塁	-11.818
小池	-11.8183
武内	-11.8192
のおっちゃん	-11.8194
悪夢	-11.8196
うううううう	-11.8201
皆んな	-11.8204
美味かった	-11.8211
ふたり	-11.8219
ついとる	-11.824
左打者	-11.8248
すっきり	-11.8251
追いついた	-11.8256
＞＞＞＞＞	-11.8262
老け	-11.8267
の意思	-11.8278
あの場面	-11.8285
今のうちに	-11.8285
ダイヤ	-11.8287
one	-11.8298
精神病	-11.8302
ただただ	-11.8312
たまご	-11.8318
使うべき	-11.8333
納め	-11.8339
貯	-11.8346
いなくな	-11.8347
ちな猫	-11.8351
控えてる	-11.8352
東日本	-11.8356
ちな鯉	-11.836
かっこよかった	-11.8378
.32	-11.8378
こわれる	-11.8379
ると嬉しい	-11.8388
何言ってん	-11.8405
悪くなった	-11.8415
くなっちゃう	-11.8416
許してくれ	-11.8422
マクド	-11.8423
乗り越え	-11.8497
っときゃ	-11.8543
実際どうなん	-11.855
途端	-11.8566
戻せ	-11.8574
おかしくなって	-11.8579
聞けば	-11.8604
羨まし	-11.8625
カッタ	-11.8628
偶	-11.8633
イルカ	-11.8642
繁	-11.8649
ヴェ	-11.865
菅	-11.865
隼	-11.8654
陥	-11.8654
錯	-11.8654
又	-11.8654
､	-11.8655
蘇	-11.8655
俣	-11.8655
駐車場	-11.8655
“	-11.8655
ヵ	-11.8655
博物館	-11.8655
畳	-11.8655
不登校	-11.8655
埋まってる	-11.8655
棲	-11.8655
繊	-11.8655
NTR	-11.8655
リベラル	-11.8655
佐々岡	-11.8655
唾	-11.8655
喪	-11.8655
多治見	-11.8655
聞こえた	-11.8655
葬	-11.8655
赦	-11.8655
⁉	-11.8655
▁これもうわかんねえな	-11.8655
♣	-11.8655
ウエスタン	-11.8655
喫茶店	-11.8655
痛恨のミス	-11.8655
ｯｿﾘ	-11.8655
▁なにいってだ	-11.8655
カービィ	-11.8655
ダイヤモンド	-11.8655
呼ばわり	-11.8655
消耗	-11.8655
盆	-11.8655
頻繁に	-11.8655
＠	-11.8655
いつのまに	-11.8655
ジェンセン	-11.8655
不憫	-11.8655
小宮山	-11.8655
樽	-11.8655
顧	-11.8655
Ｑ	-11.8655
コロンビア	-11.8655
閃	-11.8655
雨天中止	-11.8655
松坂大輔	-11.8655
蒲	-11.8655
正当化	-11.8655
ずーっと	-11.8655
柔軟	-11.8655
浸透	-11.8655
警備	-11.8655
叩きたいだけ	-11.8655
継承	-11.8655
付き合え	-11.8655
草生えますよ	-11.8655
偉そうに	-11.8655
マッチョ	-11.8655
ｼｭ	-11.8655
アラウホ	-11.8655
収録	-11.8655
オープンワールド	-11.8655
独占	-11.8656
▁真面目な話	-11.8656
給与	-11.8656
◯◯	-11.8656
首都圏	-11.8656
克服	-11.8656
申告	-11.8656
偽善	-11.8656
やめちくり	-11.8656
直接対決	-11.8656
ｻﾝ	-11.8656
網谷	-11.8656
構図	-11.8656
陣営	-11.8656
飲まない	-11.8656
もどき	-11.8656
スリーサイズ	-11.8656
デュエル	-11.8656
ニコ動	-11.8656
検証	-11.8656
予防	-11.8657
球数制限	-11.8657
焼きそば	-11.8657
歯医者	-11.8657
装置	-11.8657
●●	-11.8657
における	-11.8657
幹部	-11.8657
号泣	-11.8657
面接官	-11.8657
と信じたい	-11.8657
端末	-11.8657
イージー	-11.8658
延命	-11.8658
聖澤	-11.8658
ユニ着て	-11.8658
ディング	-11.8658
有り得	-11.8658
長い目で	-11.8658
伊達	-11.8659
防御	-11.8659
最適	-11.8659
自撮り	-11.8659
立ち位置	-11.8659
自治体	-11.8659
清武	-11.8659
継ぐ	-11.8659
確立	-11.8659
牧場	-11.8659
うえに	-11.8659
エンドラン	-11.8659
敷居	-11.8659
送りバント	-11.866
浜松	-11.866
にしか見えない	-11.866
終電	-11.866
大嶺	-11.866
乱視	-11.866
聞かれて	-11.8661
表紙	-11.8661
▁原口なんだよなぁ	-11.8661
伸ばした	-11.8661
リクエスト	-11.8662
良さげ	-11.8662
伝わる	-11.8662
北斗	-11.8663
終わらない	-11.8663
ぎょ	-11.8663
さえあれば	-11.8663
ティッシュ	-11.8664
無制限	-11.8664
専門学校	-11.8665
史上初	-11.8665
やりたかった	-11.8666
パスボール	-11.8666
オファー	-11.8666
面積	-11.8666
込めば	-11.8667
自爆	-11.8667
決着	-11.8667
あくしろ	-11.8667
生存	-11.8667
和ゲー	-11.8667
国民的	-11.8667
害悪	-11.8667
古谷	-11.8667
共有	-11.8668
考えられん	-11.8669
ワンバン	-11.8669
ぶつけた	-11.8669
リアクション	-11.8669
んねやろ	-11.867
江戸時代	-11.8675
原付	-11.8677
ルイス	-11.8679
なにがあったん	-11.8682
どうしよ	-11.8683
どっちがええ	-11.8685
貼らない	-11.8685
書いとる	-11.869
らどうなるん	-11.869
とおもった	-11.8692
堅実	-11.8698
専門家	-11.8702
コメディ	-11.8702
二塁手	-11.8708
▁うわぁ	-11.8711
流行らせ	-11.8712
万が一	-11.8716
似たようなもんや	-11.8718
サムライ	-11.8719
聴いた	-11.872
全く関係ない	-11.8721
に限る	-11.8729
ランニングホームラン	-11.874
低かった	-11.8751
おもしろかった	-11.8751
どうなっとる	-11.876
気にせんでええ	-11.8764
は知ってるけど	-11.8764
ほぼ確定	-11.8765
おろし	-11.8791
次ラウンド	-11.8802
逆方向	-11.8808
ガチ勢	-11.8809
言わず	-11.8813
片付け	-11.8818
纏め	-11.8824
元に戻	-11.8831
クイーン	-11.885
きのこ	-11.8851
彡	-11.9064
供	-11.914
玄	-11.9152
概	-11.9166
択	-11.9174
濱	-11.9174
徴	-11.9179
湾	-11.918
侵	-11.918
蒼	-11.9181
〆	-11.9181
橘	-11.9181
＊	-11.9181
堺	-11.9181
這	-11.9181
霞	-11.9181
鰻	-11.9181
蓋	-11.9181
亭	-11.9181
鎧	-11.9181
♂	-11.9181
呟	-11.9181
孝	-11.9181
廻	-11.9181
鴨	-11.9181
|	-11.9647
耐	-11.9653
抜	-11.9722
桑	-11.9731
績	-11.9733
己	-11.9734
架	-11.9735
噴	-11.9736
蝶	-11.9737
仇	-11.9737
郵	-11.9737
傍	-11.9737
凛	-11.9737
培	-11.9737
渚	-11.9737
ｖ	-11.9737
⇒	-11.9737
僻	-11.9737
蹙	-11.9737
飴	-11.9737
凹	-11.9737
弦	-11.9737
晶	-11.9737
濁	-11.9737
顰	-11.9737
幡	-11.9737
騰	-11.9737
彰	-11.9737
я	-11.9737
壇	-11.9737
魅	-12.0314
鈍	-12.032
幹	-12.0322
篠	-12.0323
浴	-12.0323
透	-12.0323
勉	-12.0324
監	-12.0324
斉	-12.0324
◎	-12.0325
墨	-12.0325
莉	-12.0325
ﾈ	-12.0325
昆	-12.0325
狸	-12.0325
瓶	-12.0325
瞳	-12.0325
胡	-12.0325
冴	-12.0325
惰	-12.0325
琴	-12.0325
鱗	-12.0325
悦	-12.0325
鮭	-12.0325
尖	-12.0325
殻	-12.0325
慣	-12.0818
萌	-12.0923
禿	-12.0928
輸	-12.0937
揚	-12.0939
罵	-12.0943
併	-12.0946
舎	-12.0947
況	-12.0948
國	-12.0949
拓	-12.0949
看	-12.0949
蔑	-12.095
━	-12.095
遭	-12.095
ﾒ	-12.095
悶	-12.095
訛	-12.095
ﾑ	-12.095
糧	-12.095
齧	-12.095
侮	-12.095
鯛	-12.095
曇	-12.095
炉	-12.095
睨	-12.095
俵	-12.095
猟	-12.095
聡	-12.095
漬	-12.1606
随	-12.1612
條	-12.1615
奮	-12.1616
棋	-12.1616
償	-12.1616
哉	-12.1616
径	-12.1616
炙	-12.1616
栖	-12.1616
岳	-12.1616
凝	-12.1616
叔	-12.1616
庵	-12.1616
棟	-12.1616
蜜	-12.1617
⇔	-12.1617
尺	-12.1617
菱	-12.1617
鯨	-12.1617
鳳	-12.1617
鼠	-12.1617
錆	-12.1617
ｾ	-12.1617
佑	-12.1617
旋	-12.1617
杏	-12.1617
烏	-12.1617
累	-12.1617
\	-12.1617
宜	-12.1617
碌	-12.1617
窮	-12.1617
萩	-12.1617
琢	-12.1617
芳	-12.1617
跳	-12.2319
覧	-12.2321
詳	-12.2322
斜	-12.2326
閥	-12.2329
苗	-12.233
ｮ	-12.233
渉	-12.233
索	-12.2331
籠	-12.2331
峠	-12.2331
誓	-12.2331
吠	-12.2331
帆	-12.2331
挽	-12.2331
禄	-12.2331
附	-12.2331
卯	-12.2331
諭	-12.2331
ｎ	-12.2331
℃	-12.2331
只	-12.2331
喩	-12.2331
敦	-12.2331
−	-12.2331
①	-12.2331
峡	-12.2331
扇	-12.2331
牢	-12.2331
債	-12.2331
苑	-12.2331
Ｘ	-12.2331
耕	-12.2331
唯	-12.3065
央	-12.309
拙	-12.3091
菓	-12.3094
帽	-12.3095
摘	-12.3099
睡	-12.31
憶	-12.31
秦	-12.31
痒	-12.31
窟	-12.31
ｄ	-12.31
姪	-12.31
肺	-12.31
錬	-12.31
㎝	-12.31
勲	-12.31
唄	-12.31
簾	-12.31
遷	-12.31
Ｙ	-12.31
☺	-12.31
厘	-12.31
宴	-12.31
撫	-12.31
朱	-12.31
臼	-12.31
轢	-12.31
ｙ	-12.31
栓	-12.31
痔	-12.31
簿	-12.31
鉱	-12.31
渕	-12.31
縫	-12.31
淳	-12.31
燻	-12.31
◆	-12.31
敢	-12.31
顕	-12.31
〝	-12.31
紛	-12.3602
曜	-12.3777
忘	-12.3875
授	-12.3932
携	-12.3932
訓	-12.3932
羨	-12.3933
搾	-12.3933
是	-12.3933
漫	-12.3933
鎌	-12.3933
奨	-12.3933
矛	-12.3933
遮	-12.3933
督	-12.3933
魁	-12.3933
ｏ	-12.3933
伺	-12.3933
囚	-12.3933
幣	-12.3933
栽	-12.3933
葵	-12.3933
藪	-12.3933
辱	-12.3933
＿	-12.3933
ε	-12.3933
孔	-12.3933
柵	-12.3933
砦	-12.3933
藁	-12.3933
陳	-12.3933
Ｚ	-12.3933
ヂ	-12.3933
准	-12.3933
崖	-12.3933
讃	-12.3933
朋	-12.3933
唇	-12.3933
避	-12.4778
胴	-12.4841
曽	-12.4841
妖	-12.4842
雀	-12.4842
斎	-12.4842
宙	-12.4842
拒	-12.4842
磐	-12.4842
戴	-12.4842
ｉ	-12.4842
瑞	-12.4842
謳	-12.4842
ヱ	-12.4842
椒	-12.4842
竿	-12.4842
謂	-12.4842
嗅	-12.4842
狐	-12.4842
珠	-12.4842
轟	-12.4842
陵	-12.4842
暁	-12.4842
韻	-12.4842
魏	-12.4842
蒙	-12.4842
②	-12.4842
嵌	-12.4842
忌	-12.4842
瀧	-12.4842
篤	-12.4842
貌	-12.4842
渾	-12.4843
③	-12.4843
瓦	-12.4843
’	-12.4843
慌	-12.5614
募	-12.5784
般	-12.5831
歓	-12.5837
催	-12.584
普	-12.584
維	-12.584
匠	-12.5842
ｈ	-12.5842
乏	-12.5842
遍	-12.5842
槻	-12.5842
槽	-12.5842
篭	-12.5842
塵	-12.5842
㎞	-12.5842
捲	-12.5842
汲	-12.5842
鮫	-12.5842
淀	-12.5842
瑠	-12.5842
臆	-12.5842
詠	-12.5842
д	-12.5842
Ⅱ	-12.5842
扉	-12.5842
澄	-12.5842
煌	-12.5842
眞	-12.5842
耶	-12.5842
豹	-12.5842
鐘	-12.5842
｡	-12.5842
Θ	-12.5842
宰	-12.5842
硫	-12.5842
蟻	-12.5842
填	-12.5842
巴	-12.5842
巽	-12.5842
紐	-12.5842
芦	-12.5842
餓	-12.5842
÷	-12.5842
咽	-12.5842
庇	-12.5842
蚊	-12.5842
謡	-12.5842
隻	-12.5842
靖	-12.5842
ν	-12.5842
欅	-12.5842
腺	-12.5842
灘	-12.5843
胎	-12.5843
玩	-12.5843
慰	-12.656
纏	-12.6576
借	-12.6922
需	-12.6953
把	-12.6953
鉛	-12.6953
厠	-12.6954
姜	-12.6954
槌	-12.6954
─	-12.6954
扶	-12.6954
昂	-12.6954
狗	-12.6954
醸	-12.6954
ｂ	-12.6954
藍	-12.6954
鉢	-12.6954
頬	-12.6954
捜	-12.6954
柑	-12.6954
茎	-12.6954
ゝ	-12.6954
俗	-12.6954
躁	-12.6954
碁	-12.6954
賜	-12.6954
唆	-12.6954
躓	-12.6954
煩	-12.6954
薙	-12.6954
ﾖ	-12.6954
禅	-12.6954
◼	-12.6954
綿	-12.6954
枯	-12.7362
誉	-12.8012
寸	-12.8159
誕	-12.82
頻	-12.8201
祥	-12.8202
埼	-12.8203
阻	-12.8203
墳	-12.8203
宏	-12.8203
洞	-12.8204
Ο	-12.8204
孵	-12.8204
∞	-12.8204
卸	-12.8204
彷	-12.8204
縞	-12.8204
膳	-12.8204
膿	-12.8204
逢	-12.8204
頓	-12.8204
髄	-12.8204
楚	-12.8204
埃	-12.8204
妬	-12.8204
攣	-12.8204
慕	-12.8204
桶	-12.8204
鵜	-12.8204
黌	-12.8204
º	-12.8204
Ф	-12.8204
恭	-12.8204
陶	-12.8204
黎	-12.8204
ゐ	-12.8204
盃	-12.8204
詣	-12.8204
辰	-12.8204
с	-12.8204
洛	-12.8204
爵	-12.8204
此	-12.8204
迦	-12.8204
叡	-12.8204
伐	-12.8204
‘	-12.8204
衰	-12.942
捨	-12.9579
翌	-12.9589
嶺	-12.9614
匂	-12.9615
庄	-12.9627
戒	-12.9627
抹	-12.9629
栃	-12.9631
紹	-12.9632
貢	-12.9632
宍	-12.9632
藻	-12.9632
爾	-12.9632
肋	-12.9632
冨	-12.9632
⊂	-12.9632
宋	-12.9632
滲	-12.9632
牡	-12.9632
⊃	-12.9632
咬	-12.9632
樂	-12.9632
溺	-12.9632
猥	-12.9632
夷	-12.9632
彫	-12.9632
斧	-12.9632
杖	-12.9632
祓	-12.9632
➡	-12.9632
㌔	-12.9632
寅	-12.9632
楊	-12.9632
а	-12.9632
к	-12.9632
т	-12.9632
ヾ	-12.9632
嗣	-12.9632
帥	-12.9632
枷	-12.9632
槇	-12.9632
瞑	-12.9632
肴	-12.9632
薫	-12.9632
苺	-12.9632
嘔	-12.9632
帖	-12.9632
杭	-12.9632
痕	-12.9632
穢	-12.9632
屯	-12.9632
播	-12.9632
α	-12.9632
愉	-12.9632
甚	-12.9632
莫	-12.9632
虜	-12.9632
蛍	-12.9632
循	-12.9632
磔	-12.9632
礁	-12.9632
紗	-12.9632
茸	-12.9632
倭	-12.9632
渇	-12.9632
壕	-12.9632
責	-13.1146
拡	-13.1276
査	-13.1288
窪	-13.129
鵬	-13.1295
舗	-13.1297
隈	-13.1297
企	-13.1298
嗜	-13.1298
茨	-13.1298
ｅ	-13.1299
稚	-13.1299
賤	-13.1299
惚	-13.2894
瞬	-13.3286
畠	-13.3296
倫	-13.3296
牝	-13.3297
撲	-13.3298
緯	-13.3298
契	-13.3298
厄	-13.3298
腱	-13.3299
·	-13.3299
▲	-13.3299
謹	-13.3299
塊	-13.5593
函	-13.5777
云	-13.5797
媚	-13.5797
購	-13.5797
鼓	-13.5797
廣	-13.5798
翻	-13.5798
湘	-13.5798
俳	-13.5798
寧	-13.5798
會	-13.5798
醒	-13.5799
學	-13.5799
汐	-13.5799
尽	-13.8839
呆	-13.893
痩	-13.9013
繰	-13.9123
旦	-13.9123
苔	-13.913
綻	-13.9131
胞	-13.9132
紳	-13.9132
肢	-13.9132
穫	-13.9132
閲	-13.9132
拉	-13.9132
蔭	-13.9132
凱	-13.9132
舘	-13.9132
蝿	-13.9132
炒	-14.3911
賭	-14.4073
諦	-14.4089
曰	-14.4124
薮	-14.4129
涌	-14.4131
耗	-14.4131
捏	-14.4132
懇	-14.4132
辣	-14.4132
斐	-14.4132
滋	-14.4132
蠣	-14.4132
岱	-14.4132
來	-14.4132
較	-14.4502
怯	-15.3843
茄	-15.3851
[...]
